{
  "version": "1.0",
  "truncation": null,
  "padding": null,
  "added_tokens": [
    {
      "id": 0,
      "content": "[UNK]",
      "single_word": false,
      "lstrip": false,
      "rstrip": false,
      "normalized": false,
      "special": true
    },
    {
      "id": 1,
      "content": "[PAD]",
      "single_word": false,
      "lstrip": false,
      "rstrip": false,
      "normalized": false,
      "special": true
    }
  ],
  "normalizer": null,
  "pre_tokenizer": {
    "type": "Whitespace"
  },
  "post_processor": null,
  "decoder": null,
  "model": {
    "type": "BPE",
    "dropout": null,
    "unk_token": "[UNK]",
    "continuing_subword_prefix": null,
    "end_of_word_suffix": null,
    "fuse_unk": false,
    "byte_fallback": false,
    "ignore_merges": false,
    "vocab": {
      "[UNK]": 0,
      "[PAD]": 1,
      "!": 2,
      "\"": 3,
      "'": 4,
      "(": 5,
      ")": 6,
      ",": 7,
      "-": 8,
      ".": 9,
      "/": 10,
      "0": 11,
      "1": 12,
      "2": 13,
      "3": 14,
      "4": 15,
      "5": 16,
      "6": 17,
      "7": 18,
      "8": 19,
      "9": 20,
      ":": 21,
      ";": 22,
      "=": 23,
      "?": 24,
      "A": 25,
      "B": 26,
      "C": 27,
      "D": 28,
      "E": 29,
      "F": 30,
      "G": 31,
      "H": 32,
      "I": 33,
      "J": 34,
      "K": 35,
      "L": 36,
      "M": 37,
      "N": 38,
      "O": 39,
      "P": 40,
      "Q": 41,
      "R": 42,
      "S": 43,
      "T": 44,
      "U": 45,
      "V": 46,
      "W": 47,
      "X": 48,
      "Y": 49,
      "Z": 50,
      "[": 51,
      "]": 52,
      "a": 53,
      "b": 54,
      "c": 55,
      "d": 56,
      "e": 57,
      "f": 58,
      "g": 59,
      "h": 60,
      "i": 61,
      "j": 62,
      "k": 63,
      "l": 64,
      "m": 65,
      "n": 66,
      "o": 67,
      "p": 68,
      "q": 69,
      "r": 70,
      "s": 71,
      "t": 72,
      "u": 73,
      "v": 74,
      "w": 75,
      "x": 76,
      "y": 77,
      "z": 78,
      "°": 79,
      "he": 80,
      "the": 81,
      "in": 82,
      "re": 83,
      "an": 84,
      "ou": 85,
      "ed": 86,
      "th": 87,
      "on": 88,
      "at": 89,
      "er": 90,
      "en": 91,
      "is": 92,
      "to": 93,
      "es": 94,
      "ing": 95,
      "ar": 96,
      "of": 97,
      "as": 98,
      "or": 99,
      "al": 100,
      "it": 101,
      "and": 102,
      "st": 103,
      "id": 104,
      "ad": 105,
      "ow": 106,
      "se": 107,
      "il": 108,
      "ic": 109,
      "be": 110,
      "om": 111,
      "ac": 112,
      "le": 113,
      "sa": 114,
      "im": 115,
      "gh": 116,
      "his": 117,
      "The": 118,
      "ve": 119,
      "you": 120,
      "ld": 121,
      "ul": 122,
      "ion": 123,
      ".\"": 124,
      "li": 125,
      "ent": 126,
      "said": 127,
      "no": 128,
      "ro": 129,
      ",\"": 130,
      "ess": 131,
      "her": 132,
      "that": 133,
      "me": 134,
      "ght": 135,
      "ly": 136,
      "ut": 137,
      "nd": 138,
      "ch": 139,
      "was": 140,
      "ith": 141,
      "ur": 142,
      "wh": 143,
      "ay": 144,
      "for": 145,
      "we": 146,
      "with": 147,
      "had": 148,
      "mo": 149,
      "fe": 150,
      "ir": 151,
      "ne": 152,
      "He": 153,
      "red": 154,
      "ce": 155,
      "ver": 156,
      "ke": 157,
      "him": 158,
      "de": 159,
      "lo": 160,
      "ould": 161,
      "ther": 162,
      "all": 163,
      "ri": 164,
      "out": 165,
      "Pa": 166,
      "ha": 167,
      "Paul": 168,
      "ain": 169,
      "ter": 170,
      "su": 171,
      "ill": 172,
      "she": 173,
      "sp": 174,
      "ll": 175,
      "not": 176,
      "fr": 177,
      "?\"": 178,
      "this": 179,
      "un": 180,
      "one": 181,
      "sh": 182,
      "tr": 183,
      "ab": 184,
      "et": 185,
      "am": 186,
      "now": 187,
      "pl": 188,
      "from": 189,
      "ked": 190,
      "per": 191,
      "ge": 192,
      "--": 193,
      "are": 194,
      "ard": 195,
      "ind": 196,
      "ted": 197,
      "od": 198,
      "us": 199,
      "man": 200,
      "com": 201,
      "con": 202,
      "aw": 203,
      "rem": 204,
      "ap": 205,
      "my": 206,
      "op": 207,
      "You": 208,
      "It": 209,
      "ust": 210,
      "thou": 211,
      "here": 212,
      "te": 213,
      "wor": 214,
      "po": 215,
      "She": 216,
      "res": 217,
      "ace": 218,
      "thing": 219,
      "ice": 220,
      "do": 221,
      "ho": 222,
      "ag": 223,
      "ation": 224,
      "own": 225,
      "up": 226,
      "sel": 227,
      "ica": 228,
      "ak": 229,
      "Jess": 230,
      "Jessica": 231,
      "ound": 232,
      "by": 233,
      "but": 234,
      "pe": 235,
      "could": 236,
      "est": 237,
      "au": 238,
      "know": 239,
      "ex": 240,
      "fo": 241,
      "other": 242,
      "them": 243,
      "your": 244,
      "ack": 245,
      "can": 246,
      "self": 247,
      "our": 248,
      "ct": 249,
      "have": 250,
      "And": 251,
      "into": 252,
      "if": 253,
      "bl": 254,
      "ich": 255,
      "qu": 256,
      "hat": 257,
      "til": 258,
      "thought": 259,
      "they": 260,
      "ant": 261,
      "ig": 262,
      "ment": 263,
      "ong": 264,
      "ight": 265,
      "were": 266,
      "way": 267,
      "ous": 268,
      "which": 269,
      "ck": 270,
      "ide": 271,
      "see": 272,
      "their": 273,
      "Le": 274,
      "han": 275,
      "there": 276,
      "gr": 277,
      "ers": 278,
      "Frem": 279,
      "ok": 280,
      "ol": 281,
      "pro": 282,
      "ome": 283,
      "ate": 284,
      "Fremen": 285,
      "ey": 286,
      "ib": 287,
      "lia": 288,
      "ist": 289,
      "will": 290,
      "Leto": 291,
      "sed": 292,
      "Alia": 293,
      "gar": 294,
      "its": 295,
      "end": 296,
      "urn": 297,
      "hand": 298,
      "Stil": 299,
      "ure": 300,
      "They": 301,
      "!\"": 302,
      "been": 303,
      "ity": 304,
      "ep": 305,
      "over": 306,
      "hed": 307,
      "ness": 308,
      "But": 309,
      "We": 310,
      "would": 311,
      "Stilgar": 312,
      "ive": 313,
      "ert": 314,
      "gl": 315,
      "rou": 316,
      "ast": 317,
      "ped": 318,
      "turn": 319,
      "des": 320,
      "vo": 321,
      "wat": 322,
      "ame": 323,
      "fl": 324,
      "tim": 325,
      "ru": 326,
      "old": 327,
      "what": 328,
      "ved": 329,
      "ene": 330,
      "sto": 331,
      "must": 332,
      "who": 333,
      "ath": 334,
      "ss": 335,
      "asked": 336,
      "ven": 337,
      "ence": 338,
      "ink": 339,
      "ark": 340,
      "back": 341,
      "ry": 342,
      "ake": 343,
      "pres": 344,
      "new": 345,
      "ie": 346,
      "ild": 347,
      "sand": 348,
      "led": 349,
      "ci": 350,
      "go": 351,
      "some": 352,
      "gu": 353,
      "hen": 354,
      "more": 355,
      "ies": 356,
      "el": 357,
      "Du": 358,
      "There": 359,
      "so": 360,
      "und": 361,
      "only": 362,
      "ated": 363,
      "ions": 364,
      "iz": 365,
      "act": 366,
      "lt": 367,
      "pt": 368,
      "ens": 369,
      "fa": 370,
      "eyes": 371,
      "ue": 372,
      "very": 373,
      "face": 374,
      "like": 375,
      "ave": 376,
      "voice": 377,
      "ud": 378,
      "um": 379,
      "ire": 380,
      "What": 381,
      "ance": 382,
      "ang": 383,
      "Bar": 384,
      "reat": 385,
      "rough": 386,
      "where": 387,
      "head": 388,
      "felt": 389,
      "ced": 390,
      "Baron": 391,
      "pr": 392,
      "pre": 393,
      "spe": 394,
      "again": 395,
      "ward": 396,
      "ach": 397,
      "dis": 398,
      "down": 399,
      "ves": 400,
      "has": 401,
      "water": 402,
      "ared": 403,
      "any": 404,
      "cl": 405,
      "saw": 406,
      "through": 407,
      "still": 408,
      "Duke": 409,
      "ord": 410,
      "time": 411,
      "co": 412,
      "mper": 413,
      "word": 414,
      "tre": 415,
      "himself": 416,
      "tw": 417,
      "Ar": 418,
      "fore": 419,
      "att": 420,
      "turned": 421,
      "come": 422,
      "able": 423,
      "about": 424,
      "art": 425,
      "da": 426,
      "ft": 427,
      "came": 428,
      "ort": 429,
      "No": 430,
      "str": 431,
      "Arr": 432,
      "think": 433,
      "ful": 434,
      "ine": 435,
      "did": 436,
      "ose": 437,
      "sm": 438,
      "light": 439,
      "plan": 440,
      "oun": 441,
      "ides": 442,
      "ady": 443,
      "desert": 444,
      "ren": 445,
      "mem": 446,
      "then": 447,
      "sc": 448,
      "ained": 449,
      "Mu": 450,
      "ched": 451,
      "against": 452,
      "ps": 453,
      "hani": 454,
      "how": 455,
      "son": 456,
      "bo": 457,
      "This": 458,
      "place": 459,
      "Muad": 460,
      "when": 461,
      "em": 462,
      "ving": 463,
      "low": 464,
      "ign": 465,
      "tal": 466,
      "Ida": 467,
      "Idaho": 468,
      "than": 469,
      "That": 470,
      "br": 471,
      "ade": 472,
      "ened": 473,
      "long": 474,
      "ima": 475,
      "right": 476,
      "off": 477,
      "ass": 478,
      "mother": 479,
      "eve": 480,
      "ney": 481,
      "ple": 482,
      "stand": 483,
      "men": 484,
      "father": 485,
      "iet": 486,
      "say": 487,
      "under": 488,
      "Chani": 489,
      "dr": 490,
      "ange": 491,
      "arm": 492,
      "vis": 493,
      "hy": 494,
      "mand": 495,
      "call": 496,
      "knew": 497,
      "around": 498,
      "ings": 499,
      "rul": 500,
      "ross": 501,
      "Atre": 502,
      "Gur": 503,
      "Ghan": 504,
      "real": 505,
      "loo": 506,
      "Atreides": 507,
      "Gurney": 508,
      "Ghanima": 509,
      "akis": 510,
      "Arrakis": 511,
      "cont": 512,
      "ni": 513,
      "most": 514,
      "Bene": 515,
      "Far": 516,
      "sw": 517,
      "Haw": 518,
      "cau": 519,
      "cy": 520,
      "hu": 521,
      "ner": 522,
      "ious": 523,
      "int": 524,
      "away": 525,
      "looked": 526,
      "Hawat": 527,
      "sen": 528,
      "fir": 529,
      "mind": 530,
      "med": 531,
      "ople": 532,
      "ip": 533,
      "car": 534,
      "sur": 535,
      "alle": 536,
      "My": 537,
      "esser": 538,
      "clo": 539,
      "ied": 540,
      "spice": 541,
      "His": 542,
      "should": 543,
      "Gesser": 544,
      "side": 545,
      "ye": 546,
      "bre": 547,
      "den": 548,
      "such": 549,
      "yn": 550,
      "ite": 551,
      "ser": 552,
      "age": 553,
      "cre": 554,
      "left": 555,
      "How": 556,
      "wa": 557,
      "those": 558,
      "Gesserit": 559,
      "before": 560,
      "life": 561,
      "In": 562,
      "cap": 563,
      "every": 564,
      "--\"": 565,
      "Hark": 566,
      "cr": 567,
      "day": 568,
      "people": 569,
      "words": 570,
      "ond": 571,
      "onn": 572,
      "child": 573,
      "too": 574,
      "Dib": 575,
      "ile": 576,
      "worm": 577,
      "Harkonn": 578,
      "Kyn": 579,
      "bes": 580,
      "ars": 581,
      "mperor": 582,
      "Kynes": 583,
      "ble": 584,
      "Halle": 585,
      "cle": 586,
      "Halleck": 587,
      "Emperor": 588,
      "pow": 589,
      "sil": 590,
      "beg": 591,
      "even": 592,
      "across": 593,
      "wom": 594,
      "sl": 595,
      "ield": 596,
      "Farad": 597,
      "air": 598,
      "ried": 599,
      "within": 600,
      "owed": 601,
      "form": 602,
      "ob": 603,
      "sk": 604,
      "arn": 605,
      "less": 606,
      "heard": 607,
      "door": 608,
      "ber": 609,
      "ways": 610,
      "Irul": 611,
      "Irulan": 612,
      "ish": 613,
      "gre": 614,
      "though": 615,
      "ef": 616,
      "ged": 617,
      "ting": 618,
      "move": 619,
      "bod": 620,
      "ick": 621,
      "never": 622,
      "uch": 623,
      "ise": 624,
      "moved": 625,
      "pped": 626,
      "wind": 627,
      "nife": 628,
      "reac": 629,
      "need": 630,
      "might": 631,
      "ters": 632,
      "tle": 633,
      "sho": 634,
      "ty": 635,
      "anger": 636,
      "two": 637,
      "cess": 638,
      "sha": 639,
      "guard": 640,
      "hind": 641,
      "open": 642,
      "cur": 643,
      "oment": 644,
      "rock": 645,
      "upon": 646,
      "tor": 647,
      "ces": 648,
      "without": 649,
      "ded": 650,
      "put": 651,
      "Mother": 652,
      "pp": 653,
      "bet": 654,
      "spo": 655,
      "Why": 656,
      "moment": 657,
      "ts": 658,
      "anced": 659,
      "az": 660,
      "look": 661,
      "Do": 662,
      "room": 663,
      "If": 664,
      "just": 665,
      "sit": 666,
      "another": 667,
      "used": 668,
      "che": 669,
      "human": 670,
      "du": 671,
      "pas": 672,
      "aware": 673,
      "bed": 674,
      "found": 675,
      "behind": 676,
      "dead": 677,
      "many": 678,
      "cour": 679,
      "stood": 680,
      "well": 681,
      "orn": 682,
      "herself": 683,
      "quest": 684,
      "af": 685,
      "made": 686,
      "cept": 687,
      "uni": 688,
      "ial": 689,
      "lit": 690,
      "outh": 691,
      "Lord": 692,
      "Lady": 693,
      "seen": 694,
      "get": 695,
      "kill": 696,
      "part": 697,
      "planet": 698,
      "may": 699,
      "ietch": 700,
      "dark": 701,
      "deep": 702,
      "sign": 703,
      "sing": 704,
      "step": 705,
      "av": 706,
      "cho": 707,
      "cause": 708,
      "don": 709,
      "mon": 710,
      "ree": 711,
      "sub": 712,
      "ered": 713,
      "sage": 714,
      "these": 715,
      "took": 716,
      "dered": 717,
      "uild": 718,
      "read": 719,
      "once": 720,
      "rend": 721,
      "atter": 722,
      "toward": 723,
      "ical": 724,
      "power": 725,
      "woman": 726,
      "feel": 727,
      "body": 728,
      "vision": 729,
      "lif": 730,
      "Yes": 731,
      "take": 732,
      "ouse": 733,
      "much": 734,
      "ins": 735,
      "fear": 736,
      "spoke": 737,
      "Reve": 738,
      "port": 739,
      "won": 740,
      "ying": 741,
      "cannot": 742,
      "ction": 743,
      "je": 744,
      "poss": 745,
      "first": 746,
      "beli": 747,
      "ention": 748,
      "speak": 749,
      "thr": 750,
      "cted": 751,
      "tion": 752,
      "something": 753,
      "Reverend": 754,
      "make": 755,
      "ary": 756,
      "set": 757,
      "fac": 758,
      "tou": 759,
      "tered": 760,
      "glanced": 761,
      "hands": 762,
      "night": 763,
      "told": 764,
      "ations": 765,
      "bro": 766,
      "sound": 767,
      "ah": 768,
      "bar": 769,
      "ult": 770,
      "memor": 771,
      "lay": 772,
      "As": 773,
      "dist": 774,
      "kar": 775,
      "ons": 776,
      "things": 777,
      "ows": 778,
      "ertain": 779,
      "Sard": 780,
      "stared": 781,
      "aukar": 782,
      "Sardaukar": 783,
      "use": 784,
      "ized": 785,
      "fut": 786,
      "par": 787,
      "dre": 788,
      "death": 789,
      "nod": 790,
      "Now": 791,
      "ual": 792,
      "bey": 793,
      "awareness": 794,
      "Then": 795,
      "verse": 796,
      "cent": 797,
      "knife": 798,
      "rin": 799,
      "whis": 800,
      "uncan": 801,
      "past": 802,
      "reacher": 803,
      "bas": 804,
      "king": 805,
      "ra": 806,
      "Duncan": 807,
      "Preacher": 808,
      "ten": 809,
      "ax": 810,
      "shad": 811,
      "inst": 812,
      "ough": 813,
      "ister": 814,
      "sure": 815,
      "cons": 816,
      "Harkonnen": 817,
      "Be": 818,
      "Fey": 819,
      "bene": 820,
      "coun": 821,
      "ever": 822,
      "gen": 823,
      "great": 824,
      "command": 825,
      "Feyd": 826,
      "sietch": 827,
      "called": 828,
      "far": 829,
      "held": 830,
      "understand": 831,
      "wait": 832,
      "course": 833,
      "ible": 834,
      "universe": 835,
      "sion": 836,
      "iv": 837,
      "aring": 838,
      "hood": 839,
      "find": 840,
      "ily": 841,
      "auth": 842,
      "Guild": 843,
      "ison": 844,
      "attention": 845,
      "ot": 846,
      "haps": 847,
      "beneath": 848,
      "gi": 849,
      "wall": 850,
      "blo": 851,
      "ng": 852,
      "inter": 853,
      "leg": 854,
      "sense": 855,
      "ring": 856,
      "want": 857,
      "hold": 858,
      "Is": 859,
      "ank": 860,
      "lig": 861,
      "aining": 862,
      "certain": 863,
      "igh": 864,
      "tale": 865,
      "cor": 866,
      "learn": 867,
      "tell": 868,
      "Scy": 869,
      "When": 870,
      "esh": 871,
      "ently": 872,
      "aught": 873,
      "future": 874,
      "Scytale": 875,
      "dif": 876,
      "mit": 877,
      "rest": 878,
      "owing": 879,
      "iled": 880,
      "does": 881,
      "nodded": 882,
      "mouth": 883,
      "demand": 884,
      "question": 885,
      "ors": 886,
      "give": 887,
      "ured": 888,
      "ures": 889,
      "yet": 890,
      "danger": 891,
      "ready": 892,
      "because": 893,
      "young": 894,
      "ref": 895,
      "appe": 896,
      "ans": 897,
      "always": 898,
      "being": 899,
      "remem": 900,
      "ments": 901,
      "Rauth": 902,
      "land": 903,
      "suit": 904,
      "remained": 905,
      "Rautha": 906,
      "One": 907,
      "done": 908,
      "beside": 909,
      "comp": 910,
      "flesh": 911,
      "rug": 912,
      "good": 913,
      "mas": 914,
      "ning": 915,
      "let": 916,
      "shield": 917,
      "known": 918,
      "Imper": 919,
      "Sh": 920,
      "To": 921,
      "fri": 922,
      "gain": 923,
      "ween": 924,
      "contro": 925,
      "began": 926,
      "ating": 927,
      "stud": 928,
      "between": 929,
      "With": 930,
      "rought": 931,
      "ms": 932,
      "bit": 933,
      "dec": 934,
      "pered": 935,
      "bal": 936,
      "brought": 937,
      "flo": 938,
      "why": 939,
      "among": 940,
      "play": 941,
      "tri": 942,
      "enough": 943,
      "nothing": 944,
      "wondered": 945,
      "fin": 946,
      "ling": 947,
      "sun": 948,
      "cus": 949,
      "aled": 950,
      "small": 951,
      "dire": 952,
      "mus": 953,
      "ug": 954,
      "ering": 955,
      "ghol": 956,
      "On": 957,
      "ching": 958,
      "abr": 959,
      "So": 960,
      "min": 961,
      "name": 962,
      "hel": 963,
      "tory": 964,
      "ities": 965,
      "person": 966,
      "Th": 967,
      "ca": 968,
      "log": 969,
      "ghola": 970,
      "gn": 971,
      "ition": 972,
      "little": 973,
      "whispered": 974,
      "ove": 975,
      "Some": 976,
      "terri": 977,
      "others": 978,
      "ev": 979,
      "sy": 980,
      "work": 981,
      "cient": 982,
      "An": 983,
      "ening": 984,
      "tak": 985,
      "black": 986,
      "For": 987,
      "mis": 988,
      "sat": 989,
      "sent": 990,
      "roy": 991,
      "motion": 992,
      "shook": 993,
      "cry": 994,
      "robe": 995,
      "llow": 996,
      "cond": 997,
      "Who": 998,
      "friend": 999,
      "wr": 1000,
      "ount": 1001,
      "rel": 1002,
      "ally": 1003,
      "change": 1004,
      "inner": 1005,
      "reco": 1006,
      "iter": 1007,
      "bu": 1008,
      "after": 1009,
      "gone": 1010,
      "nat": 1011,
      "happ": 1012,
      "relig": 1013,
      "become": 1014,
      "ants": 1015,
      "Her": 1016,
      "oub": 1017,
      "ater": 1018,
      "point": 1019,
      "Har": 1020,
      "sens": 1021,
      "went": 1022,
      "reas": 1023,
      "peri": 1024,
      "bled": 1025,
      "stor": 1026,
      "thinking": 1027,
      "each": 1028,
      "kind": 1029,
      "lin": 1030,
      "mean": 1031,
      "Tye": 1032,
      "mut": 1033,
      "ase": 1034,
      "almost": 1035,
      "feren": 1036,
      "passage": 1037,
      "believe": 1038,
      "Tyek": 1039,
      "blood": 1040,
      "dden": 1041,
      "fight": 1042,
      "illed": 1043,
      "posed": 1044,
      "cious": 1045,
      "control": 1046,
      "House": 1047,
      "wo": 1048,
      "ret": 1049,
      "sudden": 1050,
      "Your": 1051,
      "world": 1052,
      "Yue": 1053,
      "fall": 1054,
      "fact": 1055,
      "mar": 1056,
      "answ": 1057,
      "while": 1058,
      "stillsuit": 1059,
      "Not": 1060,
      "Yueh": 1061,
      "above": 1062,
      "ledge": 1063,
      "Se": 1064,
      "ired": 1065,
      "reve": 1066,
      "ont": 1067,
      "training": 1068,
      "grand": 1069,
      "Prin": 1070,
      "ban": 1071,
      "sn": 1072,
      "vi": 1073,
      "ised": 1074,
      "tem": 1075,
      "Let": 1076,
      "hid": 1077,
      "line": 1078,
      "poison": 1079,
      "cal": 1080,
      "pur": 1081,
      "rid": 1082,
      "ery": 1083,
      "tru": 1084,
      "table": 1085,
      "few": 1086,
      "touched": 1087,
      "pul": 1088,
      "test": 1089,
      "love": 1090,
      "caught": 1091,
      "dream": 1092,
      "care": 1093,
      "gest": 1094,
      "ia": 1095,
      "ix": 1096,
      "tly": 1097,
      "along": 1098,
      "ility": 1099,
      "lead": 1100,
      "memory": 1101,
      "recogn": 1102,
      "dest": 1103,
      "fing": 1104,
      "gave": 1105,
      "hop": 1106,
      "pressed": 1107,
      "Harkonnens": 1108,
      "movement": 1109,
      "mes": 1110,
      "mak": 1111,
      "ash": 1112,
      "sensed": 1113,
      "Mo": 1114,
      "Per": 1115,
      "last": 1116,
      "oc": 1117,
      "war": 1118,
      "apped": 1119,
      "carried": 1120,
      "serv": 1121,
      "green": 1122,
      "ear": 1123,
      "wal": 1124,
      "blue": 1125,
      "dust": 1126,
      "tro": 1127,
      "until": 1128,
      "opter": 1129,
      "full": 1130,
      "beyond": 1131,
      "dangerous": 1132,
      "Where": 1133,
      "ba": 1134,
      "ned": 1135,
      "ject": 1136,
      "sim": 1137,
      "wis": 1138,
      "wish": 1139,
      "ird": 1140,
      "both": 1141,
      "floor": 1142,
      "Piter": 1143,
      "pat": 1144,
      "try": 1145,
      "aughter": 1146,
      "Nam": 1147,
      "cked": 1148,
      "vious": 1149,
      "anted": 1150,
      "sum": 1151,
      "stopped": 1152,
      "begin": 1153,
      "sol": 1154,
      "escap": 1155,
      "keep": 1156,
      "plac": 1157,
      "lifted": 1158,
      "All": 1159,
      "swe": 1160,
      "shall": 1161,
      "Perhaps": 1162,
      "hal": 1163,
      "ani": 1164,
      "onto": 1165,
      "already": 1166,
      "ime": 1167,
      "times": 1168,
      "decis": 1169,
      "Namri": 1170,
      "doub": 1171,
      "posit": 1172,
      "children": 1173,
      "ail": 1174,
      "creat": 1175,
      "fam": 1176,
      "hur": 1177,
      "pri": 1178,
      "requ": 1179,
      "experi": 1180,
      "Again": 1181,
      "eas": 1182,
      "list": 1183,
      "pass": 1184,
      "silence": 1185,
      "storm": 1186,
      "amis": 1187,
      "Jamis": 1188,
      "dam": 1189,
      "ks": 1190,
      "ping": 1191,
      "ular": 1192,
      "chang": 1193,
      "feet": 1194,
      "reason": 1195,
      "St": 1196,
      "Tle": 1197,
      "glo": 1198,
      "plo": 1199,
      "path": 1200,
      "hear": 1201,
      "comple": 1202,
      "demanded": 1203,
      "Edr": 1204,
      "nor": 1205,
      "ship": 1206,
      "trained": 1207,
      "action": 1208,
      "Tleil": 1209,
      "Edric": 1210,
      "cover": 1211,
      "hun": 1212,
      "phe": 1213,
      "pal": 1214,
      "sli": 1215,
      "lost": 1216,
      "capt": 1217,
      "differen": 1218,
      "answer": 1219,
      "Tleilax": 1220,
      "dro": 1221,
      "live": 1222,
      "passed": 1223,
      "Harah": 1224,
      "fig": 1225,
      "na": 1226,
      "warn": 1227,
      "isted": 1228,
      "als": 1229,
      "accept": 1230,
      "rum": 1231,
      "silent": 1232,
      "Tyekani": 1233,
      "Tyekanik": 1234,
      "Ah": 1235,
      "high": 1236,
      "jo": 1237,
      "tent": 1238,
      "near": 1239,
      "lled": 1240,
      "front": 1241,
      "guards": 1242,
      "sof": 1243,
      "weap": 1244,
      "didn": 1245,
      "breath": 1246,
      "di": 1247,
      "ges": 1248,
      "gri": 1249,
      "edge": 1250,
      "same": 1251,
      "trust": 1252,
      "seeing": 1253,
      "present": 1254,
      "At": 1255,
      "ather": 1256,
      "cer": 1257,
      "dib": 1258,
      "filled": 1259,
      "resp": 1260,
      "returned": 1261,
      "cham": 1262,
      "surface": 1263,
      "close": 1264,
      "remember": 1265,
      "row": 1266,
      "vent": 1267,
      "inte": 1268,
      "thro": 1269,
      "itself": 1270,
      "tran": 1271,
      "bring": 1272,
      "Imperial": 1273,
      "Tleilaxu": 1274,
      "daughter": 1275,
      "fer": 1276,
      "coming": 1277,
      "pose": 1278,
      "iew": 1279,
      "feeling": 1280,
      "thopter": 1281,
      "ones": 1282,
      "tray": 1283,
      "mentat": 1284,
      "produ": 1285,
      "closed": 1286,
      "aze": 1287,
      "Don": 1288,
      "return": 1289,
      "ries": 1290,
      "remain": 1291,
      "brother": 1292,
      "squ": 1293,
      "tried": 1294,
      "wanted": 1295,
      "ination": 1296,
      "ancient": 1297,
      "moving": 1298,
      "opened": 1299,
      "Great": 1300,
      "bur": 1301,
      "cat": 1302,
      "lar": 1303,
      "mat": 1304,
      "report": 1305,
      "ided": 1306,
      "lives": 1307,
      "susp": 1308,
      "grow": 1309,
      "years": 1310,
      "conscious": 1311,
      "appeared": 1312,
      "Sire": 1313,
      "les": 1314,
      "patter": 1315,
      "sou": 1316,
      "val": 1317,
      "ances": 1318,
      "force": 1319,
      "Princess": 1320,
      "Kor": 1321,
      "Re": 1322,
      "view": 1323,
      "inted": 1324,
      "reed": 1325,
      "lips": 1326,
      "feat": 1327,
      "space": 1328,
      "fool": 1329,
      "shadows": 1330,
      "Korba": 1331,
      "cut": 1332,
      "ctor": 1333,
      "fic": 1334,
      "ging": 1335,
      "necess": 1336,
      "allowed": 1337,
      "true": 1338,
      "selves": 1339,
      "ately": 1340,
      "akeen": 1341,
      "Arrakeen": 1342,
      "draw": 1343,
      "carry": 1344,
      "tone": 1345,
      "iness": 1346,
      "presence": 1347,
      "ize": 1348,
      "har": 1349,
      "sul": 1350,
      "moist": 1351,
      "sup": 1352,
      "odd": 1353,
      "destroy": 1354,
      "pattern": 1355,
      "leave": 1356,
      "hair": 1357,
      "conce": 1358,
      "appro": 1359,
      "blind": 1360,
      "clear": 1361,
      "obvious": 1362,
      "truth": 1363,
      "die": 1364,
      "lim": 1365,
      "betray": 1366,
      "entire": 1367,
      "char": 1368,
      "gener": 1369,
      "message": 1370,
      "Even": 1371,
      "Ment": 1372,
      "aj": 1373,
      "cir": 1374,
      "ics": 1375,
      "shed": 1376,
      "foll": 1377,
      "going": 1378,
      "spect": 1379,
      "rocks": 1380,
      "killed": 1381,
      "aib": 1382,
      "slow": 1383,
      "ined": 1384,
      "expl": 1385,
      "skin": 1386,
      "throat": 1387,
      "born": 1388,
      "cro": 1389,
      "gaze": 1390,
      "hall": 1391,
      "pu": 1392,
      "ris": 1393,
      "sle": 1394,
      "arp": 1395,
      "lect": 1396,
      "permit": 1397,
      "knows": 1398,
      "ended": 1399,
      "Well": 1400,
      "half": 1401,
      "Mentat": 1402,
      "os": 1403,
      "ident": 1404,
      "moon": 1405,
      "else": 1406,
      "Mur": 1407,
      "dri": 1408,
      "dun": 1409,
      "gth": 1410,
      "ls": 1411,
      "secre": 1412,
      "spread": 1413,
      "ground": 1414,
      "studied": 1415,
      "troop": 1416,
      "Bi": 1417,
      "Hay": 1418,
      "matter": 1419,
      "pain": 1420,
      "anat": 1421,
      "mel": 1422,
      "forced": 1423,
      "spir": 1424,
      "thoughts": 1425,
      "better": 1426,
      "Hayt": 1427,
      "cas": 1428,
      "run": 1429,
      "trem": 1430,
      "fell": 1431,
      "ift": 1432,
      "attle": 1433,
      "terrible": 1434,
      "Did": 1435,
      "house": 1436,
      "ming": 1437,
      "wond": 1438,
      "bling": 1439,
      "Dune": 1440,
      "moisture": 1441,
      "Every": 1442,
      "cu": 1443,
      "cing": 1444,
      "col": 1445,
      "send": 1446,
      "threat": 1447,
      "alone": 1448,
      "boy": 1449,
      "longer": 1450,
      "arms": 1451,
      "medi": 1452,
      "direct": 1453,
      "jud": 1454,
      "sharp": 1455,
      "whose": 1456,
      "someone": 1457,
      "single": 1458,
      "liff": 1459,
      "waiting": 1460,
      "Sister": 1461,
      "cold": 1462,
      "cliff": 1463,
      "argu": 1464,
      "ited": 1465,
      "ste": 1466,
      "forward": 1467,
      "kept": 1468,
      "dep": 1469,
      "knowledge": 1470,
      "fully": 1471,
      "memories": 1472,
      "taken": 1473,
      "Oh": 1474,
      "Was": 1475,
      "lan": 1476,
      "inv": 1477,
      "add": 1478,
      "tra": 1479,
      "fold": 1480,
      "blade": 1481,
      "seemed": 1482,
      "cial": 1483,
      "uggl": 1484,
      "chamber": 1485,
      "Muriz": 1486,
      "Pres": 1487,
      "dom": 1488,
      "obey": 1489,
      "tes": 1490,
      "oud": 1491,
      "ask": 1492,
      "ices": 1493,
      "noted": 1494,
      "myst": 1495,
      "strange": 1496,
      "possible": 1497,
      "Cal": 1498,
      "Te": 1499,
      "tu": 1500,
      "hesit": 1501,
      "safe": 1502,
      "vers": 1503,
      "olden": 1504,
      "subtle": 1505,
      "possess": 1506,
      "crysk": 1507,
      "Count": 1508,
      "bing": 1509,
      "dry": 1510,
      "wit": 1511,
      "acc": 1512,
      "ution": 1513,
      "fect": 1514,
      "aint": 1515,
      "myself": 1516,
      "tect": 1517,
      "watched": 1518,
      "press": 1519,
      "prof": 1520,
      "learned": 1521,
      "Sisterhood": 1522,
      "gy": 1523,
      "three": 1524,
      "leap": 1525,
      "meet": 1526,
      "uring": 1527,
      "comm": 1528,
      "remind": 1529,
      "yourself": 1530,
      "Have": 1531,
      "Rab": 1532,
      "free": 1533,
      "nar": 1534,
      "sin": 1535,
      "tight": 1536,
      "itu": 1537,
      "below": 1538,
      "glow": 1539,
      "cience": 1540,
      "anything": 1541,
      "drew": 1542,
      "melange": 1543,
      "Of": 1544,
      "burn": 1545,
      "hard": 1546,
      "ler": 1547,
      "pted": 1548,
      "sister": 1549,
      "adan": 1550,
      "pers": 1551,
      "foot": 1552,
      "proble": 1553,
      "got": 1554,
      "chee": 1555,
      "figure": 1556,
      "Caladan": 1557,
      "crysknife": 1558,
      "Rabban": 1559,
      "Usul": 1560,
      "reg": 1561,
      "stare": 1562,
      "iling": 1563,
      "outside": 1564,
      "trap": 1565,
      "expe": 1566,
      "soon": 1567,
      "cles": 1568,
      "order": 1569,
      "realized": 1570,
      "hidden": 1571,
      "heav": 1572,
      "ator": 1573,
      "ished": 1574,
      "Here": 1575,
      "quick": 1576,
      "empt": 1577,
      "everything": 1578,
      "dunes": 1579,
      "athe": 1580,
      "fat": 1581,
      "jaz": 1582,
      "round": 1583,
      "mot": 1584,
      "ress": 1585,
      "smuggl": 1586,
      "compan": 1587,
      "position": 1588,
      "Cor": 1589,
      "fit": 1590,
      "ihad": 1591,
      "lad": 1592,
      "wild": 1593,
      "stren": 1594,
      "def": 1595,
      "shout": 1596,
      "eye": 1597,
      "smiled": 1598,
      "crow": 1599,
      "steps": 1600,
      "Only": 1601,
      "decision": 1602,
      "doubt": 1603,
      "Bijaz": 1604,
      "ssed": 1605,
      "ality": 1606,
      "stret": 1607,
      "ents": 1608,
      "ute": 1609,
      "white": 1610,
      "aged": 1611,
      "knowing": 1612,
      "really": 1613,
      "avid": 1614,
      "instru": 1615,
      "help": 1616,
      "band": 1617,
      "mal": 1618,
      "yal": 1619,
      "anim": 1620,
      "eday": 1621,
      "lea": 1622,
      "met": 1623,
      "prep": 1624,
      "days": 1625,
      "sky": 1626,
      "looking": 1627,
      "darkness": 1628,
      "soft": 1629,
      "ahead": 1630,
      "pa": 1631,
      "amed": 1632,
      "perhaps": 1633,
      "standing": 1634,
      "recognized": 1635,
      "complete": 1636,
      "Javid": 1637,
      "Thu": 1638,
      "cup": 1639,
      "cused": 1640,
      "hes": 1641,
      "ane": 1642,
      "meas": 1643,
      "fort": 1644,
      "stop": 1645,
      "twins": 1646,
      "smile": 1647,
      "scre": 1648,
      "powers": 1649,
      "Presently": 1650,
      "Thufir": 1651,
      "CH": 1652,
      "mist": 1653,
      "ze": 1654,
      "aren": 1655,
      "focused": 1656,
      "contin": 1657,
      "stepped": 1658,
      "throne": 1659,
      "rugged": 1660,
      "escape": 1661,
      "Are": 1662,
      "aim": 1663,
      "battle": 1664,
      "cise": 1665,
      "field": 1666,
      "ger": 1667,
      "ium": 1668,
      "mb": 1669,
      "mark": 1670,
      "qanat": 1671,
      "sme": 1672,
      "south": 1673,
      "ony": 1674,
      "ali": 1675,
      "second": 1676,
      "became": 1677,
      "import": 1678,
      "faces": 1679,
      "pulled": 1680,
      "ken": 1681,
      "pack": 1682,
      "stem": 1683,
      "bered": 1684,
      "youth": 1685,
      "show": 1686,
      "doing": 1687,
      "quiet": 1688,
      "pression": 1689,
      "strong": 1690,
      "given": 1691,
      "muscles": 1692,
      "snapped": 1693,
      "experien": 1694,
      "Time": 1695,
      "Would": 1696,
      "Wall": 1697,
      "gover": 1698,
      "ives": 1699,
      "kin": 1700,
      "ror": 1701,
      "yes": 1702,
      "ative": 1703,
      "mere": 1704,
      "nex": 1705,
      "comes": 1706,
      "pointed": 1707,
      "reached": 1708,
      "fighting": 1709,
      "beginning": 1710,
      "Com": 1711,
      "Had": 1712,
      "best": 1713,
      "fast": 1714,
      "stru": 1715,
      "acy": 1716,
      "vered": 1717,
      "living": 1718,
      "ural": 1719,
      "trying": 1720,
      "conf": 1721,
      "seek": 1722,
      "prom": 1723,
      "attack": 1724,
      "stra": 1725,
      "yellow": 1726,
      "basin": 1727,
      "instant": 1728,
      "hope": 1729,
      "followed": 1730,
      "Naib": 1731,
      "Yet": 1732,
      "stir": 1733,
      "staring": 1734,
      "ilt": 1735,
      "awn": 1736,
      "turning": 1737,
      "emer": 1738,
      "worms": 1739,
      "possib": 1740,
      "Corrin": 1741,
      "dim": 1742,
      "ife": 1743,
      "pred": 1744,
      "heart": 1745,
      "ought": 1746,
      "aside": 1747,
      "chair": 1748,
      "exposed": 1749,
      "themselves": 1750,
      "clim": 1751,
      "slave": 1752,
      "distur": 1753,
      "creature": 1754,
      "priv": 1755,
      "slipped": 1756,
      "strength": 1757,
      "straight": 1758,
      "Tabr": 1759,
      "Un": 1760,
      "Water": 1761,
      "bird": 1762,
      "cru": 1763,
      "ier": 1764,
      "mur": 1765,
      "tend": 1766,
      "repe": 1767,
      "top": 1768,
      "immedi": 1769,
      "neck": 1770,
      "loved": 1771,
      "Does": 1772,
      "tested": 1773,
      "Ab": 1774,
      "Will": 1775,
      "ian": 1776,
      "mer": 1777,
      "sal": 1778,
      "ism": 1779,
      "gry": 1780,
      "grim": 1781,
      "lowered": 1782,
      "orning": 1783,
      "system": 1784,
      "religious": 1785,
      "lines": 1786,
      "suddenly": 1787,
      "viol": 1788,
      "secret": 1789,
      "Tell": 1790,
      "fil": 1791,
      "rit": 1792,
      "sour": 1793,
      "alive": 1794,
      "metal": 1795,
      "whir": 1796,
      "weak": 1797,
      "ages": 1798,
      "special": 1799,
      "women": 1800,
      "signal": 1801,
      "Imperium": 1802,
      "crossed": 1803,
      "Corrino": 1804,
      "Sha": 1805,
      "aut": 1806,
      "cil": 1807,
      "hor": 1808,
      "morning": 1809,
      "star": 1810,
      "sear": 1811,
      "ilities": 1812,
      "imp": 1813,
      "trans": 1814,
      "speaking": 1815,
      "faced": 1816,
      "muttered": 1817,
      "purpose": 1818,
      "itude": 1819,
      "crowd": 1820,
      "God": 1821,
      "Jac": 1822,
      "Our": 1823,
      "city": 1824,
      "cast": 1825,
      "equ": 1826,
      "itor": 1827,
      "wound": 1828,
      "These": 1829,
      "except": 1830,
      "ouses": 1831,
      "features": 1832,
      ".'": 1833,
      "Feday": 1834,
      "Or": 1835,
      "len": 1836,
      "lau": 1837,
      "pil": 1838,
      "ased": 1839,
      "lean": 1840,
      "Their": 1841,
      "utu": 1842,
      "urutu": 1843,
      "ung": 1844,
      "exist": 1845,
      "ighed": 1846,
      "flow": 1847,
      "saying": 1848,
      "craw": 1849,
      "grew": 1850,
      "ches": 1851,
      "dune": 1852,
      "walls": 1853,
      "master": 1854,
      "religion": 1855,
      "grandmother": 1856,
      "weapon": 1857,
      "commun": 1858,
      "Jacurutu": 1859,
      "Fedaykin": 1860,
      "Al": 1861,
      "fal": 1862,
      "gas": 1863,
      "hund": 1864,
      "often": 1865,
      "ils": 1866,
      "ulud": 1867,
      "trick": 1868,
      "amp": 1869,
      "ific": 1870,
      "waited": 1871,
      "doesn": 1872,
      "remembered": 1873,
      "hundred": 1874,
      "fle": 1875,
      "hon": 1876,
      "pac": 1877,
      "vic": 1878,
      "ates": 1879,
      "aded": 1880,
      "lived": 1881,
      "cepted": 1882,
      "shrugged": 1883,
      "usion": 1884,
      "watch": 1885,
      "orders": 1886,
      "pping": 1887,
      "Shield": 1888,
      "wrong": 1889,
      "family": 1890,
      "changed": 1891,
      "interest": 1892,
      "AM": 1893,
      "Jihad": 1894,
      "mach": 1895,
      "por": 1896,
      "sor": 1897,
      "tens": 1898,
      "thin": 1899,
      "orig": 1900,
      "rier": 1901,
      "agreed": 1902,
      "couldn": 1903,
      "iff": 1904,
      "hang": 1905,
      "aching": 1906,
      "shoulder": 1907,
      "condition": 1908,
      "See": 1909,
      "smell": 1910,
      "bent": 1911,
      "cul": 1912,
      "hh": 1913,
      "iar": 1914,
      "pit": 1915,
      "pop": 1916,
      "ran": 1917,
      "supp": 1918,
      "plic": 1919,
      "upward": 1920,
      "quar": 1921,
      "wore": 1922,
      "warf": 1923,
      "langu": 1924,
      "heavy": 1925,
      "prepared": 1926,
      "By": 1927,
      "Pro": 1928,
      "cke": 1929,
      "tall": 1930,
      "wide": 1931,
      "inated": 1932,
      "ider": 1933,
      "apes": 1934,
      "price": 1935,
      "Nothing": 1936,
      "break": 1937,
      "formation": 1938,
      "obser": 1939,
      "window": 1940,
      "choice": 1941,
      "refle": 1942,
      "friends": 1943,
      "finger": 1944,
      "fingers": 1945,
      "summon": 1946,
      "narrow": 1947,
      "bir": 1948,
      "gift": 1949,
      "hour": 1950,
      "tar": 1951,
      "ict": 1952,
      "accepted": 1953,
      "flat": 1954,
      "ump": 1955,
      "legend": 1956,
      "appear": 1957,
      "large": 1958,
      "govern": 1959,
      "died": 1960,
      "fix": 1961,
      "oper": 1962,
      "ood": 1963,
      "iny": 1964,
      "oned": 1965,
      "ense": 1966,
      "ordered": 1967,
      "aling": 1968,
      "adv": 1969,
      "history": 1970,
      "ull": 1971,
      "nose": 1972,
      "short": 1973,
      "trout": 1974,
      "Farok": 1975,
      "touch": 1976,
      "bitter": 1977,
      "simple": 1978,
      "merely": 1979,
      "birth": 1980,
      "Mapes": 1981,
      "Such": 1982,
      "Tru": 1983,
      "aft": 1984,
      "hide": 1985,
      "ires": 1986,
      "slight": 1987,
      "state": 1988,
      "beaut": 1989,
      "uly": 1990,
      "meters": 1991,
      "plant": 1992,
      "using": 1993,
      "gray": 1994,
      "raised": 1995,
      "corner": 1996,
      "diffic": 1997,
      "walked": 1998,
      "problem": 1999,
      "Fr": 2000,
      "wing": 2001,
      "ining": 2002,
      "iset": 2003,
      "offe": 2004,
      "stre": 2005,
      "iding": 2006,
      "omination": 2007,
      "imag": 2008,
      "sug": 2009,
      "trac": 2010,
      "truly": 2011,
      "exam": 2012,
      "proper": 2013,
      "prophe": 2014,
      "discus": 2015,
      "visions": 2016,
      "shadow": 2017,
      "baliset": 2018,
      "terrif": 2019,
      "natural": 2020,
      "tempt": 2021,
      "maker": 2022,
      "empty": 2023,
      ".)": 2024,
      "Houses": 2025,
      "Say": 2026,
      "Slow": 2027,
      "cross": 2028,
      "four": 2029,
      "ient": 2030,
      "las": 2031,
      "ma": 2032,
      "tic": 2033,
      "wise": 2034,
      "ands": 2035,
      "icked": 2036,
      "ached": 2037,
      "thousand": 2038,
      "grou": 2039,
      "surv": 2040,
      "shared": 2041,
      "sounds": 2042,
      "meaning": 2043,
      "marked": 2044,
      "placed": 2045,
      "famil": 2046,
      "dropped": 2047,
      "suspens": 2048,
      "hesitated": 2049,
      "witch": 2050,
      "Slowly": 2051,
      "Sietch": 2052,
      "mor": 2053,
      "taught": 2054,
      "atz": 2055,
      "erach": 2056,
      "stiff": 2057,
      "key": 2058,
      "manner": 2059,
      "comput": 2060,
      "worked": 2061,
      "guide": 2062,
      "ization": 2063,
      "talk": 2064,
      "says": 2065,
      "shoulders": 2066,
      "chool": 2067,
      "mask": 2068,
      "taking": 2069,
      "calm": 2070,
      "wisatz": 2071,
      "Still": 2072,
      "different": 2073,
      "origin": 2074,
      "avo": 2075,
      "bound": 2076,
      "eep": 2077,
      "home": 2078,
      "ook": 2079,
      "stri": 2080,
      "iction": 2081,
      "entered": 2082,
      "dev": 2083,
      "loyal": 2084,
      "note": 2085,
      "food": 2086,
      "follow": 2087,
      "sandtrout": 2088,
      "actions": 2089,
      "precise": 2090,
      "pleas": 2091,
      "ipped": 2092,
      "belie": 2093,
      "broke": 2094,
      "Without": 2095,
      "music": 2096,
      "personal": 2097,
      "directly": 2098,
      "since": 2099,
      "violence": 2100,
      "ER": 2101,
      "cave": 2102,
      "ience": 2103,
      "removed": 2104,
      "angry": 2105,
      "tood": 2106,
      "aster": 2107,
      "adi": 2108,
      "least": 2109,
      "trad": 2110,
      "hose": 2111,
      "erstood": 2112,
      "glance": 2113,
      "timate": 2114,
      "rule": 2115,
      "whole": 2116,
      "prescience": 2117,
      "scr": 2118,
      "effect": 2119,
      "distance": 2120,
      "Because": 2121,
      "tribe": 2122,
      "transp": 2123,
      "sleep": 2124,
      "stretched": 2125,
      "continu": 2126,
      "Fen": 2127,
      "Othey": 2128,
      "Sab": 2129,
      "Those": 2130,
      "bad": 2131,
      "dwarf": 2132,
      "la": 2133,
      "mil": 2134,
      "ph": 2135,
      "pan": 2136,
      "uck": 2137,
      "whe": 2138,
      "wings": 2139,
      "rele": 2140,
      "ener": 2141,
      "alu": 2142,
      "det": 2143,
      "trou": 2144,
      "concer": 2145,
      "working": 2146,
      "swallowed": 2147,
      "shock": 2148,
      "shape": 2149,
      "played": 2150,
      "Any": 2151,
      "royal": 2152,
      "senses": 2153,
      "revealed": 2154,
      "leader": 2155,
      "consciousness": 2156,
      "glowglo": 2157,
      "CHO": 2158,
      "Shai": 2159,
      "Otheym": 2160,
      "Liet": 2161,
      "iha": 2162,
      "mult": 2163,
      "non": 2164,
      "thum": 2165,
      "also": 2166,
      "separ": 2167,
      "rode": 2168,
      "indic": 2169,
      "myth": 2170,
      "hole": 2171,
      "watching": 2172,
      "understood": 2173,
      "forehead": 2174,
      "craft": 2175,
      "holding": 2176,
      "mission": 2177,
      "happened": 2178,
      "grief": 2179,
      "traitor": 2180,
      "shouted": 2181,
      "false": 2182,
      "Fenring": 2183,
      "Sabiha": 2184,
      "CHOAM": 2185,
      "Coun": 2186,
      "bri": 2187,
      "cum": 2188,
      "cord": 2189,
      "emotion": 2190,
      "pair": 2191,
      "tong": 2192,
      "acher": 2193,
      "robes": 2194,
      "mob": 2195,
      "shif": 2196,
      "gether": 2197,
      "pos": 2198,
      "design": 2199,
      "reality": 2200,
      "counter": 2201,
      "Once": 2202,
      "places": 2203,
      "trembling": 2204,
      "leaving": 2205,
      "hangings": 2206,
      "Council": 2207,
      "Nef": 2208,
      "bab": 2209,
      "build": 2210,
      "gun": 2211,
      "gment": 2212,
      "ips": 2213,
      "ras": 2214,
      "sight": 2215,
      "sighed": 2216,
      "ines": 2217,
      "thy": 2218,
      "thus": 2219,
      "isn": 2220,
      "enty": 2221,
      "vern": 2222,
      "aband": 2223,
      "poor": 2224,
      "agree": 2225,
      "needed": 2226,
      "subject": 2227,
      "relax": 2228,
      "experience": 2229,
      "weapons": 2230,
      "important": 2231,
      "quarters": 2232,
      "difficult": 2233,
      "Nefud": 2234,
      "Keep": 2235,
      "Two": 2236,
      "aven": 2237,
      "bus": 2238,
      "big": 2239,
      "gir": 2240,
      "lic": 2241,
      "tun": 2242,
      "heat": 2243,
      "attered": 2244,
      "adjust": 2245,
      "entr": 2246,
      "irst": 2247,
      "dear": 2248,
      "haw": 2249,
      "ains": 2250,
      "awak": 2251,
      "peered": 2252,
      "expression": 2253,
      "ief": 2254,
      "calling": 2255,
      "formal": 2256,
      "humans": 2257,
      "questions": 2258,
      "caution": 2259,
      "warned": 2260,
      "reminded": 2261,
      "male": 2262,
      "mir": 2263,
      "ency": 2264,
      "arose": 2265,
      "stay": 2266,
      "stone": 2267,
      "idence": 2268,
      "formed": 2269,
      "forces": 2270,
      "tern": 2271,
      "suc": 2272,
      "super": 2273,
      "suits": 2274,
      "suspect": 2275,
      "book": 2276,
      "offic": 2277,
      "breed": 2278,
      "movements": 2279,
      "opening": 2280,
      "cavern": 2281,
      "walk": 2282,
      "catch": 2283,
      "permitted": 2284,
      "wonder": 2285,
      "possessed": 2286,
      "motions": 2287,
      "horiz": 2288,
      "leaned": 2289,
      "From": 2290,
      "Can": 2291,
      "Fali": 2292,
      "Lands": 2293,
      "Old": 2294,
      "Su": 2295,
      "bow": 2296,
      "god": 2297,
      "mine": 2298,
      "rich": 2299,
      "smo": 2300,
      "six": 2301,
      "orac": 2302,
      "alert": 2303,
      "sequ": 2304,
      "vel": 2305,
      "lie": 2306,
      "tering": 2307,
      "spok": 2308,
      "growing": 2309,
      "fail": 2310,
      "attend": 2311,
      "partic": 2312,
      "centr": 2313,
      "understanding": 2314,
      "logical": 2315,
      "cheeks": 2316,
      "next": 2317,
      "language": 2318,
      "familiar": 2319,
      "horizon": 2320,
      "Salu": 2321,
      "drug": 2322,
      "ele": 2323,
      "fur": 2324,
      "fun": 2325,
      "mp": 2326,
      "rage": 2327,
      "tank": 2328,
      "wave": 2329,
      "inct": 2330,
      "rect": 2331,
      "ata": 2332,
      "eng": 2333,
      "lift": 2334,
      "rolled": 2335,
      "meant": 2336,
      "forget": 2337,
      "cell": 2338,
      "ability": 2339,
      "common": 2340,
      "flu": 2341,
      "izing": 2342,
      "angers": 2343,
      "clean": 2344,
      "raad": 2345,
      "interpre": 2346,
      "happen": 2347,
      "gesture": 2348,
      "required": 2349,
      "depend": 2350,
      "Abomination": 2351,
      "Salusa": 2352,
      "Ex": 2353,
      "Many": 2354,
      "Pe": 2355,
      "Shad": 2356,
      "Vo": 2357,
      "Wens": 2358,
      "bright": 2359,
      "cher": 2360,
      "dare": 2361,
      "eh": 2362,
      "late": 2363,
      "tas": 2364,
      "inde": 2365,
      "atic": 2366,
      "ators": 2367,
      "total": 2368,
      "together": 2369,
      "icia": 2370,
      "wasn": 2371,
      "wel": 2372,
      "plain": 2373,
      "esty": 2374,
      "explo": 2375,
      "protested": 2376,
      "pray": 2377,
      "drink": 2378,
      "surpr": 2379,
      "signs": 2380,
      "throng": 2381,
      "custo": 2382,
      "palm": 2383,
      "leaped": 2384,
      "ritual": 2385,
      "source": 2386,
      "girl": 2387,
      "Landsraad": 2388,
      "Wensicia": 2389,
      "Ano": 2390,
      "Each": 2391,
      "Golden": 2392,
      "later": 2393,
      "mag": 2394,
      "sink": 2395,
      "sword": 2396,
      "vit": 2397,
      "acked": 2398,
      "velo": 2399,
      "suf": 2400,
      "unt": 2401,
      "trance": 2402,
      "absol": 2403,
      "quite": 2404,
      "planted": 2405,
      "closer": 2406,
      "deadly": 2407,
      "thrust": 2408,
      "distant": 2409,
      "consider": 2410,
      "balance": 2411,
      "easily": 2412,
      "respons": 2413,
      "suspic": 2414,
      "betrayed": 2415,
      "wondering": 2416,
      "profound": 2417,
      "companion": 2418,
      "animal": 2419,
      "whirled": 2420,
      "group": 2421,
      "Another": 2422,
      "Des": 2423,
      "Zen": 2424,
      "eth": 2425,
      "fire": 2426,
      "fabr": 2427,
      "och": 2428,
      "ences": 2429,
      "itions": 2430,
      "start": 2431,
      "hook": 2432,
      "upt": 2433,
      "peace": 2434,
      "hate": 2435,
      "antic": 2436,
      "protect": 2437,
      "desc": 2438,
      "pract": 2439,
      "covered": 2440,
      "surround": 2441,
      "count": 2442,
      "greater": 2443,
      "mitted": 2444,
      "logist": 2445,
      "Something": 2446,
      "dreams": 2447,
      "decisions": 2448,
      "reports": 2449,
      "slowly": 2450,
      "explain": 2451,
      "expect": 2452,
      "athed": 2453,
      "private": 2454,
      "crawler": 2455,
      "Truth": 2456,
      "continued": 2457,
      "tongue": 2458,
      "Ghani": 2459,
      "Very": 2460,
      "game": 2461,
      "law": 2462,
      "pay": 2463,
      "pet": 2464,
      "tig": 2465,
      "zz": 2466,
      "waste": 2467,
      "outer": 2468,
      "pled": 2469,
      "ape": 2470,
      "enemy": 2471,
      "umbled": 2472,
      "visible": 2473,
      "firm": 2474,
      "crest": 2475,
      "cleared": 2476,
      "doorway": 2477,
      "share": 2478,
      "choose": 2479,
      "commanded": 2480,
      "giving": 2481,
      "escaped": 2482,
      "remains": 2483,
      "argument": 2484,
      "obeyed": 2485,
      "completely": 2486,
      "honor": 2487,
      "government": 2488,
      "Zensun": 2489,
      "Con": 2490,
      "Kwisatz": 2491,
      "Maj": 2492,
      "Pri": 2493,
      "bat": 2494,
      "bank": 2495,
      "dawn": 2496,
      "fright": 2497,
      "ither": 2498,
      "mass": 2499,
      "oth": 2500,
      "sad": 2501,
      "sne": 2502,
      "school": 2503,
      "imes": 2504,
      "ultimate": 2505,
      "lip": 2506,
      "demon": 2507,
      "tract": 2508,
      "ety": 2509,
      "conv": 2510,
      "iful": 2511,
      "spec": 2512,
      "offer": 2513,
      "hyth": 2514,
      "ipment": 2515,
      "symb": 2516,
      "occup": 2517,
      "service": 2518,
      "listen": 2519,
      "difference": 2520,
      "pushed": 2521,
      "tube": 2522,
      "meeting": 2523,
      "aimed": 2524,
      "experienced": 2525,
      "Haderach": 2526,
      "suggest": 2527,
      "energy": 2528,
      "entrance": 2529,
      "spoken": 2530,
      "Zensunni": 2531,
      "AN": 2532,
      "Life": 2533,
      "Wh": 2534,
      "bind": 2535,
      "der": 2536,
      "div": 2537,
      "fro": 2538,
      "fif": 2539,
      "fist": 2540,
      "five": 2541,
      "fought": 2542,
      "golden": 2543,
      "ta": 2544,
      "ton": 2545,
      "yed": 2546,
      "information": 2547,
      "ths": 2548,
      "today": 2549,
      "itive": 2550,
      "omet": 2551,
      "uloch": 2552,
      "lose": 2553,
      "frag": 2554,
      "tears": 2555,
      "ols": 2556,
      "handle": 2557,
      "flowing": 2558,
      "soci": 2559,
      "prim": 2560,
      "forms": 2561,
      "aza": 2562,
      "Shuloch": 2563,
      "studying": 2564,
      "finite": 2565,
      "swept": 2566,
      "produced": 2567,
      "harsh": 2568,
      "concealed": 2569,
      "risk": 2570,
      "smugglers": 2571,
      "instrument": 2572,
      "equipment": 2573,
      "support": 2574,
      "fixed": 2575,
      "Could": 2576,
      "athing": 2577,
      "loud": 2578,
      "rhyth": 2579,
      "tiny": 2580,
      "ingly": 2581,
      "ari": 2582,
      "ashed": 2583,
      "seat": 2584,
      "save": 2585,
      "chance": 2586,
      "noting": 2587,
      "teach": 2588,
      "ago": 2589,
      "ests": 2590,
      "voices": 2591,
      "prescient": 2592,
      "failed": 2593,
      "prevent": 2594,
      "anyone": 2595,
      "twenty": 2596,
      "scar": 2597,
      "serve": 2598,
      "object": 2599,
      "shocked": 2600,
      "ually": 2601,
      "landing": 2602,
      "Thus": 2603,
      "Sec": 2604,
      "carefully": 2605,
      "listened": 2606,
      "Ahhh": 2607,
      "repeated": 2608,
      "started": 2609,
      "target": 2610,
      "hawk": 2611,
      "Voice": 2612,
      "bs": 2613,
      "faint": 2614,
      "hulud": 2615,
      "ky": 2616,
      "tled": 2617,
      "tired": 2618,
      "warm": 2619,
      "heir": 2620,
      "orange": 2621,
      "bear": 2622,
      "mote": 2623,
      "fears": 2624,
      "delic": 2625,
      "rig": 2626,
      "unable": 2627,
      "focus": 2628,
      "blur": 2629,
      "seeking": 2630,
      "izar": 2631,
      "prison": 2632,
      "preci": 2633,
      "cost": 2634,
      "scow": 2635,
      "breast": 2636,
      "bodies": 2637,
      "curity": 2638,
      "evil": 2639,
      "necessary": 2640,
      "ckets": 2641,
      "terrifying": 2642,
      "AL": 2643,
      "Out": 2644,
      "Tue": 2645,
      "bare": 2646,
      "bers": 2647,
      "bbed": 2648,
      "data": 2649,
      "eper": 2650,
      "eco": 2651,
      "freed": 2652,
      "gard": 2653,
      "jaw": 2654,
      "kit": 2655,
      "mid": 2656,
      "maint": 2657,
      "num": 2658,
      "oly": 2659,
      "slo": 2660,
      "usu": 2661,
      "vil": 2662,
      "incre": 2663,
      "reach": 2664,
      "recalled": 2665,
      "eness": 2666,
      "aries": 2667,
      "alth": 2668,
      "strode": 2669,
      "iced": 2670,
      "imm": 2671,
      "ulation": 2672,
      "chall": 2673,
      "redu": 2674,
      "thern": 2675,
      "lling": 2676,
      "shud": 2677,
      "showed": 2678,
      "consequ": 2679,
      "hot": 2680,
      "uptly": 2681,
      "que": 2682,
      "process": 2683,
      "somewhere": 2684,
      "undus": 2685,
      "likely": 2686,
      "cloud": 2687,
      "stillness": 2688,
      "drag": 2689,
      "windows": 2690,
      "base": 2691,
      "limits": 2692,
      "explained": 2693,
      "cheek": 2694,
      "smuggler": 2695,
      "pilgrim": 2696,
      "Truthsay": 2697,
      "ometimes": 2698,
      "Secundus": 2699,
      "Tuek": 2700,
      "Emp": 2701,
      "Qizar": 2702,
      "Ste": 2703,
      "crou": 2704,
      "cult": 2705,
      "mies": 2706,
      "scan": 2707,
      "ues": 2708,
      "inno": 2709,
      "inward": 2710,
      "esc": 2711,
      "org": 2712,
      "aly": 2713,
      "itary": 2714,
      "stal": 2715,
      "stars": 2716,
      "beat": 2717,
      "means": 2718,
      "develo": 2719,
      "terror": 2720,
      "app": 2721,
      "igno": 2722,
      "fair": 2723,
      "uded": 2724,
      "forever": 2725,
      "shot": 2726,
      "moments": 2727,
      "belief": 2728,
      "factory": 2729,
      "landsc": 2730,
      "shields": 2731,
      "sensation": 2732,
      "making": 2733,
      "sweet": 2734,
      "possibility": 2735,
      "wounded": 2736,
      "discuss": 2737,
      "original": 2738,
      "tradition": 2739,
      "nonsense": 2740,
      "particular": 2741,
      "Majesty": 2742,
      "Truthsayer": 2743,
      "Af": 2744,
      "Cha": 2745,
      "Po": 2746,
      "Sand": 2747,
      "cation": 2748,
      "ding": 2749,
      "eat": 2750,
      "gle": 2751,
      "hi": 2752,
      "hum": 2753,
      "harm": 2754,
      "ox": 2755,
      "rap": 2756,
      "une": 2757,
      "vir": 2758,
      "ature": 2759,
      "attempt": 2760,
      "stup": 2761,
      "beloved": 2762,
      "utes": 2763,
      "deli": 2764,
      "sume": 2765,
      "frown": 2766,
      "track": 2767,
      "area": 2768,
      "arena": 2769,
      "ards": 2770,
      "convers": 2771,
      "teeth": 2772,
      "host": 2773,
      "blow": 2774,
      "enemies": 2775,
      "pressure": 2776,
      "activ": 2777,
      "precious": 2778,
      "achie": 2779,
      "twisted": 2780,
      "member": 2781,
      "emp": 2782,
      "contained": 2783,
      "needs": 2784,
      "curren": 2785,
      "sounded": 2786,
      "Before": 2787,
      "giant": 2788,
      "legions": 2789,
      "certainly": 2790,
      "correct": 2791,
      "direction": 2792,
      "logy": 2793,
      "gestured": 2794,
      "cub": 2795,
      "immediately": 2796,
      "tension": 2797,
      "shifted": 2798,
      "challen": 2799,
      "landscape": 2800,
      "AR": 2801,
      "Ro": 2802,
      "Wor": 2803,
      "dut": 2804,
      "ghed": 2805,
      "lat": 2806,
      "pace": 2807,
      "ric": 2808,
      "sis": 2809,
      "sac": 2810,
      "ina": 2811,
      "intr": 2812,
      "angl": 2813,
      "ancing": 2814,
      "arr": 2815,
      "sages": 2816,
      "lies": 2817,
      "whom": 2818,
      "hadn": 2819,
      "irty": 2820,
      "allow": 2821,
      "unknown": 2822,
      "conspir": 2823,
      "post": 2824,
      "proje": 2825,
      "ending": 2826,
      "ornith": 2827,
      "chosen": 2828,
      "parad": 2829,
      "center": 2830,
      "whisper": 2831,
      "refused": 2832,
      "native": 2833,
      "Prince": 2834,
      "easy": 2835,
      "plot": 2836,
      "warning": 2837,
      "approach": 2838,
      "expected": 2839,
      "mistake": 2840,
      "arent": 2841,
      "struck": 2842,
      "stirred": 2843,
      "interesting": 2844,
      "offee": 2845,
      "lasgun": 2846,
      "Empire": 2847,
      "Come": 2848,
      "Face": 2849,
      "ait": 2850,
      "awe": 2851,
      "bid": 2852,
      "coffee": 2853,
      "fan": 2854,
      "gent": 2855,
      "mess": 2856,
      "nam": 2857,
      "ration": 2858,
      "uf": 2859,
      "inc": 2860,
      "added": 2861,
      "belt": 2862,
      "acter": 2863,
      "lied": 2864,
      "noon": 2865,
      "wear": 2866,
      "weight": 2867,
      "illum": 2868,
      "shing": 2869,
      "const": 2870,
      "opters": 2871,
      "aking": 2872,
      "existed": 2873,
      "ified": 2874,
      "prote": 2875,
      "wouldn": 2876,
      "glit": 2877,
      "cipl": 2878,
      "box": 2879,
      "hys": 2880,
      "doors": 2881,
      "effort": 2882,
      "curious": 2883,
      "broken": 2884,
      "helped": 2885,
      "evidence": 2886,
      "built": 2887,
      "fallen": 2888,
      "creatures": 2889,
      "captive": 2890,
      "respond": 2891,
      "square": 2892,
      "soul": 2893,
      "necessity": 2894,
      "character": 2895,
      "emerged": 2896,
      "straightened": 2897,
      "birds": 2898,
      "survive": 2899,
      "absolute": 2900,
      "banker": 2901,
      "organ": 2902,
      "Dr": 2903,
      "Dan": 2904,
      "Good": 2905,
      "IN": 2906,
      "aid": 2907,
      "ears": 2908,
      "fed": 2909,
      "fate": 2910,
      "fish": 2911,
      "gather": 2912,
      "hig": 2913,
      "mic": 2914,
      "ots": 2915,
      "yad": 2916,
      "hearing": 2917,
      "incl": 2918,
      "thread": 2919,
      "bel": 2920,
      "beast": 2921,
      "level": 2922,
      "chin": 2923,
      "chan": 2924,
      "wered": 2925,
      "nephe": 2926,
      "cerem": 2927,
      "uses": 2928,
      "fled": 2929,
      "enetr": 2930,
      "preser": 2931,
      "civil": 2932,
      "clam": 2933,
      "stillsuits": 2934,
      "scene": 2935,
      "waved": 2936,
      "grey": 2937,
      "killing": 2938,
      "deeply": 2939,
      "powerful": 2940,
      "barrier": 2941,
      "Bew": 2942,
      "gency": 2943,
      "gives": 2944,
      "abrupt": 2945,
      "Someone": 2946,
      "writ": 2947,
      "buy": 2948,
      "ridge": 2949,
      "doubts": 2950,
      "intel": 2951,
      "sought": 2952,
      "conceal": 2953,
      "accident": 2954,
      "quickly": 2955,
      "murm": 2956,
      "immediate": 2957,
      "communic": 2958,
      "Sayyad": 2959,
      "suspensor": 2960,
      "loyalty": 2961,
      "released": 2962,
      "glowglobes": 2963,
      "abandoned": 2964,
      "business": 2965,
      "People": 2966,
      "hooks": 2967,
      "escort": 2968,
      "hysical": 2969,
      "nephew": 2970,
      "Sayyadina": 2971,
      "Look": 2972,
      "cou": 2973,
      "eto": 2974,
      "emotions": 2975,
      "fash": 2976,
      "hus": 2977,
      "lation": 2978,
      "mour": 2979,
      "wed": 2980,
      "onse": 2981,
      "although": 2982,
      "ading": 2983,
      "sea": 2984,
      "sever": 2985,
      "lying": 2986,
      "Path": 2987,
      "spy": 2988,
      "abilities": 2989,
      "Its": 2990,
      "exc": 2991,
      "prov": 2992,
      "eless": 2993,
      "spected": 2994,
      "coll": 2995,
      "twist": 2996,
      "lights": 2997,
      "year": 2998,
      "created": 2999,
      "greet": 3000,
      "uniform": 3001,
      "countered": 3002,
      "ivid": 3003,
      "answered": 3004,
      "caut": 3005,
      "controls": 3006,
      "servant": 3007,
      "response": 3008,
      "drawn": 3009,
      "obviously": 3010,
      "color": 3011,
      "safety": 3012,
      "burning": 3013,
      "search": 3014,
      "laugh": 3015,
      "victory": 3016,
      "machine": 3017,
      "beautiful": 3018,
      "street": 3019,
      "transport": 3020,
      "brief": 3021,
      "crouched": 3022,
      "stupid": 3023,
      "fashion": 3024,
      "First": 3025,
      "aide": 3026,
      "bru": 3027,
      "ee": 3028,
      "echo": 3029,
      "kne": 3030,
      "physical": 3031,
      "vol": 3032,
      "reaction": 3033,
      "thick": 3034,
      "isto": 3035,
      "sem": 3036,
      "seal": 3037,
      "sealed": 3038,
      "icted": 3039,
      "wet": 3040,
      "wealth": 3041,
      "nel": 3042,
      "hah": 3043,
      "unity": 3044,
      "peril": 3045,
      "concentr": 3046,
      "worn": 3047,
      "ressed": 3048,
      "iftly": 3049,
      "gras": 3050,
      "ersman": 3051,
      "desire": 3052,
      "stories": 3053,
      "treacher": 3054,
      "plans": 3055,
      "please": 3056,
      "breathing": 3057,
      "silver": 3058,
      "thrown": 3059,
      "settled": 3060,
      "barked": 3061,
      "certainty": 3062,
      "Mohi": 3063,
      "occur": 3064,
      "wisdom": 3065,
      "slip": 3066,
      "joy": 3067,
      "growled": 3068,
      "value": 3069,
      "destroyed": 3070,
      "circle": 3071,
      "judgment": 3072,
      "folded": 3073,
      "animals": 3074,
      "weakness": 3075,
      "laughed": 3076,
      "military": 3077,
      "breeding": 3078,
      "Shaddam": 3079,
      "fabric": 3080,
      "consequences": 3081,
      "pilgrims": 3082,
      "After": 3083,
      "Mohiam": 3084,
      "Ind": 3085,
      "Take": 3086,
      "ai": 3087,
      "cop": 3088,
      "gently": 3089,
      "jab": 3090,
      "lone": 3091,
      "pes": 3092,
      "penetr": 3093,
      "sir": 3094,
      "song": 3095,
      "ties": 3096,
      "tip": 3097,
      "thed": 3098,
      "record": 3099,
      "ises": 3100,
      "arri": 3101,
      "sect": 3102,
      "seated": 3103,
      "delay": 3104,
      "shel": 3105,
      "sheath": 3106,
      "unconscious": 3107,
      "ships": 3108,
      "trave": 3109,
      "poised": 3110,
      "reser": 3111,
      "holy": 3112,
      "akes": 3113,
      "idea": 3114,
      "grab": 3115,
      "desper": 3116,
      "flag": 3117,
      "ensity": 3118,
      "prin": 3119,
      "prefer": 3120,
      "realization": 3121,
      "lesson": 3122,
      "chest": 3123,
      "ception": 3124,
      "avail": 3125,
      "farther": 3126,
      "telling": 3127,
      "study": 3128,
      "tribes": 3129,
      "nature": 3130,
      "requires": 3131,
      "paces": 3132,
      "statement": 3133,
      "detail": 3134,
      "concern": 3135,
      "indeed": 3136,
      "conversation": 3137,
      "several": 3138,
      "Abr": 3139,
      "Dam": 3140,
      "EN": 3141,
      "Hall": 3142,
      "Sil": 3143,
      "cous": 3144,
      "dangers": 3145,
      "eed": 3146,
      "lack": 3147,
      "mad": 3148,
      "mount": 3149,
      "pity": 3150,
      "rain": 3151,
      "rup": 3152,
      "vor": 3153,
      "wife": 3154,
      "inh": 3155,
      "tow": 3156,
      "stance": 3157,
      "adis": 3158,
      "sec": 3159,
      "beard": 3160,
      "chief": 3161,
      "whate": 3162,
      "haven": 3163,
      "termin": 3164,
      "ably": 3165,
      "apart": 3166,
      "resto": 3167,
      "glist": 3168,
      "glared": 3169,
      "story": 3170,
      "backward": 3171,
      "sandworm": 3172,
      "Shall": 3173,
      "relation": 3174,
      "lined": 3175,
      "testing": 3176,
      "makes": 3177,
      "patch": 3178,
      "hurry": 3179,
      "changes": 3180,
      "trusted": 3181,
      "presented": 3182,
      "supposed": 3183,
      "charge": 3184,
      "casual": 3185,
      "running": 3186,
      "myster": 3187,
      "climbed": 3188,
      "summoned": 3189,
      "garden": 3190,
      "whatever": 3191,
      "Just": 3192,
      "Qu": 3193,
      "bits": 3194,
      "either": 3195,
      "maj": 3196,
      "ral": 3197,
      "sman": 3198,
      "sides": 3199,
      "uct": 3200,
      "vill": 3201,
      "reli": 3202,
      "ster": 3203,
      "omed": 3204,
      "ential": 3205,
      "uten": 3206,
      "neg": 3207,
      "lock": 3208,
      "plants": 3209,
      "individ": 3210,
      "concub": 3211,
      "opport": 3212,
      "audi": 3213,
      "flowed": 3214,
      "goes": 3215,
      "swung": 3216,
      "setting": 3217,
      "wants": 3218,
      "questioning": 3219,
      "sensing": 3220,
      "passing": 3221,
      "changing": 3222,
      "remembering": 3223,
      "produce": 3224,
      "carrying": 3225,
      "Everything": 3226,
      "precisely": 3227,
      "superst": 3228,
      "lieuten": 3229,
      "AT": 3230,
      "Get": 3231,
      "IV": 3232,
      "Law": 3233,
      "Other": 3234,
      "Padis": 3235,
      "bowed": 3236,
      "cried": 3237,
      "eight": 3238,
      "gap": 3239,
      "ived": 3240,
      "jer": 3241,
      "kil": 3242,
      "pill": 3243,
      "pie": 3244,
      "rings": 3245,
      "raged": 3246,
      "sank": 3247,
      "sigh": 3248,
      "inside": 3249,
      "thre": 3250,
      "atom": 3251,
      "isan": 3252,
      "ising": 3253,
      "tool": 3254,
      "strug": 3255,
      "ids": 3256,
      "aced": 3257,
      "nostr": 3258,
      "weather": 3259,
      "fron": 3260,
      "unless": 3261,
      "shut": 3262,
      "teen": 3263,
      "doctor": 3264,
      "exact": 3265,
      "urely": 3266,
      "glimp": 3267,
      "older": 3268,
      "uding": 3269,
      "class": 3270,
      "psy": 3271,
      "however": 3272,
      "brown": 3273,
      "intent": 3274,
      "survi": 3275,
      "denied": 3276,
      "capable": 3277,
      "everywhere": 3278,
      "bargain": 3279,
      "corrid": 3280,
      "reflect": 3281,
      "controlled": 3282,
      "directed": 3283,
      "retreat": 3284,
      "falling": 3285,
      "hiding": 3286,
      "listening": 3287,
      "charged": 3288,
      "cush": 3289,
      "invol": 3290,
      "measure": 3291,
      "screen": 3292,
      "Naibs": 3293,
      "gasped": 3294,
      "posite": 3295,
      "delicate": 3296,
      "murmured": 3297,
      "etologist": 3298,
      "cautious": 3299,
      "treachery": 3300,
      "Abruptly": 3301,
      "Silence": 3302,
      "individual": 3303,
      "Padishah": 3304,
      "nostrils": 3305,
      "Ass": 3306,
      "Bible": 3307,
      "Fear": 3308,
      "Lisan": 3309,
      "May": 3310,
      "dared": 3311,
      "none": 3312,
      "ride": 3313,
      "san": 3314,
      "tended": 3315,
      "zed": 3316,
      "respect": 3317,
      "inging": 3318,
      "arth": 3319,
      "ory": 3320,
      "idge": 3321,
      "seas": 3322,
      "net": 3323,
      "ket": 3324,
      "deal": 3325,
      "rip": 3326,
      "habit": 3327,
      "uncle": 3328,
      "absor": 3329,
      "etic": 3330,
      "compl": 3331,
      "opposite": 3332,
      "tech": 3333,
      "igue": 3334,
      "grin": 3335,
      "flick": 3336,
      "heads": 3337,
      "headed": 3338,
      "disc": 3339,
      "lighted": 3340,
      "sche": 3341,
      "swiftly": 3342,
      "tooth": 3343,
      "attering": 3344,
      "ically": 3345,
      "playing": 3346,
      "muscle": 3347,
      "logic": 3348,
      "revelation": 3349,
      "hung": 3350,
      "larger": 3351,
      "matters": 3352,
      "necessities": 3353,
      "circum": 3354,
      "invest": 3355,
      "problems": 3356,
      "disturb": 3357,
      "slightly": 3358,
      "thumper": 3359,
      "adjusted": 3360,
      "attendants": 3361,
      "Desert": 3362,
      "zzled": 3363,
      "symbol": 3364,
      "Dancer": 3365,
      "ceremony": 3366,
      "jabbar": 3367,
      "Damn": 3368,
      "audience": 3369,
      "Ad": 3370,
      "Give": 3371,
      "Gaib": 3372,
      "Hulud": 3373,
      "Me": 3374,
      "Men": 3375,
      "ON": 3376,
      "bul": 3377,
      "dy": 3378,
      "gom": 3379,
      "gall": 3380,
      "nic": 3381,
      "nine": 3382,
      "pun": 3383,
      "picked": 3384,
      "rim": 3385,
      "rank": 3386,
      "radi": 3387,
      "tur": 3388,
      "win": 3389,
      "ission": 3390,
      "arily": 3391,
      "ority": 3392,
      "stumbled": 3393,
      "security": 3394,
      "ilar": 3395,
      "saved": 3396,
      "chose": 3397,
      "dete": 3398,
      "outward": 3399,
      "unted": 3400,
      "oney": 3401,
      "odor": 3402,
      "potent": 3403,
      "igo": 3404,
      "hanging": 3405,
      "grass": 3406,
      "ively": 3407,
      "desp": 3408,
      "anged": 3409,
      "cool": 3410,
      "attitude": 3411,
      "image": 3412,
      "rules": 3413,
      "contain": 3414,
      "contact": 3415,
      "deny": 3416,
      "served": 3417,
      "waist": 3418,
      "winds": 3419,
      "needle": 3420,
      "planetary": 3421,
      "speaks": 3422,
      "rather": 3423,
      "genetic": 3424,
      "iva": 3425,
      "missed": 3426,
      "temple": 3427,
      "careful": 3428,
      "occas": 3429,
      "captain": 3430,
      "gripped": 3431,
      "transl": 3432,
      "bringing": 3433,
      "patterns": 3434,
      "approached": 3435,
      "clearly": 3436,
      "cruel": 3437,
      "length": 3438,
      "existence": 3439,
      "reflected": 3440,
      "believed": 3441,
      "trouble": 3442,
      "tigers": 3443,
      "rhythm": 3444,
      "emphas": 3445,
      "challenge": 3446,
      "Ban": 3447,
      "Bash": 3448,
      "Ch": 3449,
      "De": 3450,
      "Dhur": 3451,
      "Tem": 3452,
      "bin": 3453,
      "bon": 3454,
      "dou": 3455,
      "dar": 3456,
      "fis": 3457,
      "flight": 3458,
      "faster": 3459,
      "gro": 3460,
      "gam": 3461,
      "gold": 3462,
      "lump": 3463,
      "mort": 3464,
      "oted": 3465,
      "rand": 3466,
      "whel": 3467,
      "rece": 3468,
      "reven": 3469,
      "third": 3470,
      "aria": 3471,
      "asc": 3472,
      "asy": 3473,
      "alter": 3474,
      "hissed": 3475,
      "ula": 3476,
      "enter": 3477,
      "roof": 3478,
      "utter": 3479,
      "chuck": 3480,
      "deeper": 3481,
      "loss": 3482,
      "locked": 3483,
      "suspected": 3484,
      "spies": 3485,
      "plaza": 3486,
      "seem": 3487,
      "gram": 3488,
      "probing": 3489,
      "overhead": 3490,
      "overwhel": 3491,
      "gladi": 3492,
      "destru": 3493,
      "cially": 3494,
      "speed": 3495,
      "treme": 3496,
      "smen": 3497,
      "membr": 3498,
      "lower": 3499,
      "brings": 3500,
      "nerje": 3501,
      "minds": 3502,
      "silently": 3503,
      "tors": 3504,
      "sitting": 3505,
      "facing": 3506,
      "Guildsman": 3507,
      "Isn": 3508,
      "demands": 3509,
      "revealing": 3510,
      "recognize": 3511,
      "hoped": 3512,
      "Most": 3513,
      "earli": 3514,
      "early": 3515,
      "damp": 3516,
      "complex": 3517,
      "figures": 3518,
      "softly": 3519,
      "foolish": 3520,
      "general": 3521,
      "generations": 3522,
      "spirit": 3523,
      "cliffs": 3524,
      "depths": 3525,
      "athered": 3526,
      "fatigue": 3527,
      "companions": 3528,
      "paused": 3529,
      "experiences": 3530,
      "struct": 3531,
      "filter": 3532,
      "amplif": 3533,
      "relaxed": 3534,
      "official": 3535,
      "sneered": 3536,
      "louder": 3537,
      "Steersman": 3538,
      "conspiracy": 3539,
      "Bewt": 3540,
      "written": 3541,
      "Indeed": 3542,
      "available": 3543,
      "kilome": 3544,
      "threw": 3545,
      "Bannerje": 3546,
      "Temple": 3547,
      "Bannerjee": 3548,
      "AD": 3549,
      "Agar": 3550,
      "Both": 3551,
      "Certain": 3552,
      "En": 3553,
      "Fam": 3554,
      "Gu": 3555,
      "Ix": 3556,
      "Lit": 3557,
      "cow": 3558,
      "dying": 3559,
      "fre": 3560,
      "ka": 3561,
      "nal": 3562,
      "pure": 3563,
      "ub": 3564,
      "ufact": 3565,
      "zen": 3566,
      "hell": 3567,
      "inate": 3568,
      "insect": 3569,
      "edu": 3570,
      "thal": 3571,
      "thood": 3572,
      "thirty": 3573,
      "ites": 3574,
      "admitted": 3575,
      "beha": 3576,
      "ldom": 3577,
      "forgot": 3578,
      "withdraw": 3579,
      "ceed": 3580,
      "sheathed": 3581,
      "trapped": 3582,
      "manufact": 3583,
      "confron": 3584,
      "exchange": 3585,
      "ously": 3586,
      "program": 3587,
      "ists": 3588,
      "overcome": 3589,
      "els": 3590,
      "sole": 3591,
      "discover": 3592,
      "dais": 3593,
      "armed": 3594,
      "nerv": 3595,
      "create": 3596,
      "situ": 3597,
      "aff": 3598,
      "avig": 3599,
      "fearful": 3600,
      "instinct": 3601,
      "shielded": 3602,
      "balcon": 3603,
      "minutes": 3604,
      "reasons": 3605,
      "ference": 3606,
      "reveal": 3607,
      "poisoned": 3608,
      "ashing": 3609,
      "More": 3610,
      "north": 3611,
      "captured": 3612,
      "rumors": 3613,
      "rumbled": 3614,
      "grip": 3615,
      "burden": 3616,
      "suppressed": 3617,
      "mystery": 3618,
      "leaves": 3619,
      "measuring": 3620,
      "promise": 3621,
      "disturbed": 3622,
      "flee": 3623,
      "ported": 3624,
      "conditioned": 3625,
      "Protect": 3626,
      "appearance": 3627,
      "beauty": 3628,
      "tracted": 3629,
      "prophecy": 3630,
      "stiffened": 3631,
      "computation": 3632,
      "believes": 3633,
      "whether": 3634,
      "oracle": 3635,
      "function": 3636,
      "interpret": 3637,
      "taste": 3638,
      "society": 3639,
      "scowled": 3640,
      "freedom": 3641,
      "slope": 3642,
      "Qizarate": 3643,
      "ignored": 3644,
      "constant": 3645,
      "cousin": 3646,
      "concubine": 3647,
      "opportunity": 3648,
      "Bashar": 3649,
      "membrane": 3650,
      "Agarves": 3651,
      "Has": 3652,
      "II": 3653,
      "Im": 3654,
      "Mak": 3655,
      "Mission": 3656,
      "RE": 3657,
      "ben": 3658,
      "bor": 3659,
      "bond": 3660,
      "corn": 3661,
      "dle": 3662,
      "ease": 3663,
      "fill": 3664,
      "fib": 3665,
      "frequ": 3666,
      "moun": 3667,
      "raw": 3668,
      "sway": 3669,
      "sold": 3670,
      "wi": 3671,
      "rever": 3672,
      "reported": 3673,
      "asking": 3674,
      "lected": 3675,
      "hissing": 3676,
      "ulate": 3677,
      "ulated": 3678,
      "whip": 3679,
      "mood": 3680,
      "feed": 3681,
      "sumed": 3682,
      "shig": 3683,
      "shattered": 3684,
      "comfort": 3685,
      "awire": 3686,
      "worth": 3687,
      "polit": 3688,
      "agent": 3689,
      "exp": 3690,
      "extreme": 3691,
      "ourselves": 3692,
      "ibility": 3693,
      "discipl": 3694,
      "claw": 3695,
      "stilltent": 3696,
      "thinks": 3697,
      "ounce": 3698,
      "ignor": 3699,
      "slid": 3700,
      "slay": 3701,
      "observ": 3702,
      "shaped": 3703,
      "humankind": 3704,
      "ducal": 3705,
      "getting": 3706,
      "surely": 3707,
      "demanding": 3708,
      "decided": 3709,
      "final": 3710,
      "events": 3711,
      "motioned": 3712,
      "sumpt": 3713,
      "hurt": 3714,
      "valu": 3715,
      "limit": 3716,
      "limited": 3717,
      "judge": 3718,
      "promised": 3719,
      "dimens": 3720,
      "Uncle": 3721,
      "reflection": 3722,
      "slightest": 3723,
      "Priest": 3724,
      "reduced": 3725,
      "major": 3726,
      "Dhuri": 3727,
      "gladiator": 3728,
      "Protectiva": 3729,
      "Missionaria": 3730,
      "corners": 3731,
      "shigawire": 3732,
      "10": 3733,
      "Cast": 3734,
      "Father": 3735,
      "Hu": 3736,
      "Jud": 3737,
      "Mah": 3738,
      "Never": 3739,
      "Stop": 3740,
      "Word": 3741,
      "drum": 3742,
      "during": 3743,
      "dress": 3744,
      "eze": 3745,
      "fine": 3746,
      "jour": 3747,
      "mill": 3748,
      "mound": 3749,
      "obl": 3750,
      "pisto": 3751,
      "ron": 3752,
      "remove": 3753,
      "edges": 3754,
      "ision": 3755,
      "issu": 3756,
      "espe": 3757,
      "arse": 3758,
      "itch": 3759,
      "advis": 3760,
      "acted": 3761,
      "accur": 3762,
      "accus": 3763,
      "imir": 3764,
      "noise": 3765,
      "robed": 3766,
      "essential": 3767,
      "cha": 3768,
      "chant": 3769,
      "feint": 3770,
      "female": 3771,
      "Helen": 3772,
      "ceiling": 3773,
      "vering": 3774,
      "dew": 3775,
      "deleg": 3776,
      "defeat": 3777,
      "having": 3778,
      "spring": 3779,
      "amount": 3780,
      "flashed": 3781,
      "rubbed": 3782,
      "guilt": 3783,
      "cot": 3784,
      "fulness": 3785,
      "emplo": 3786,
      "brave": 3787,
      "realize": 3788,
      "swallow": 3789,
      "intensity": 3790,
      "creation": 3791,
      "crept": 3792,
      "crack": 3793,
      "court": 3794,
      "genes": 3795,
      "commands": 3796,
      "ival": 3797,
      "holds": 3798,
      "learning": 3799,
      "Too": 3800,
      "minute": 3801,
      "Think": 3802,
      "facts": 3803,
      "vior": 3804,
      "Moon": 3805,
      "similar": 3806,
      "wishes": 3807,
      "damn": 3808,
      "damned": 3809,
      "globe": 3810,
      "pale": 3811,
      "palms": 3812,
      "differences": 3813,
      "joined": 3814,
      "transm": 3815,
      "returning": 3816,
      "growth": 3817,
      "following": 3818,
      "puzzled": 3819,
      "sharply": 3820,
      "persist": 3821,
      "hours": 3822,
      "bitterness": 3823,
      "offered": 3824,
      "building": 3825,
      "rasped": 3826,
      "surprise": 3827,
      "custom": 3828,
      "descri": 3829,
      "practice": 3830,
      "frightened": 3831,
      "precipit": 3832,
      "Royal": 3833,
      "intellig": 3834,
      "mysterious": 3835,
      "confronted": 3836,
      "balcony": 3837,
      "journey": 3838,
      "Ada": 3839,
      "Book": 3840,
      "Plan": 3841,
      "Sp": 3842,
      "dig": 3843,
      "fted": 3844,
      "gate": 3845,
      "hut": 3846,
      "main": 3847,
      "ost": 3848,
      "rare": 3849,
      "sack": 3850,
      "tit": 3851,
      "inet": 3852,
      "infl": 3853,
      "review": 3854,
      "replaced": 3855,
      "ann": 3856,
      "itation": 3857,
      "stances": 3858,
      "static": 3859,
      "adm": 3860,
      "ades": 3861,
      "omen": 3862,
      "role": 3863,
      "feared": 3864,
      "loose": 3865,
      "spent": 3866,
      "ams": 3867,
      "plast": 3868,
      "manip": 3869,
      "managed": 3870,
      "comb": 3871,
      "resist": 3872,
      "estim": 3873,
      "yours": 3874,
      "mental": 3875,
      "Fremkit": 3876,
      "project": 3877,
      "glare": 3878,
      "glass": 3879,
      "prepar": 3880,
      "core": 3881,
      "assass": 3882,
      "surged": 3883,
      "evening": 3884,
      "ishment": 3885,
      "curt": 3886,
      "finding": 3887,
      "authority": 3888,
      "legs": 3889,
      "tells": 3890,
      "evol": 3891,
      "sym": 3892,
      "relative": 3893,
      "pointing": 3894,
      "Harq": 3895,
      "worlds": 3896,
      "drop": 3897,
      "ventured": 3898,
      "sleeve": 3899,
      "osity": 3900,
      "moonlight": 3901,
      "spreading": 3902,
      "accord": 3903,
      "fitted": 3904,
      "screamed": 3905,
      "confusion": 3906,
      "imagine": 3907,
      "avoid": 3908,
      "pleasure": 3909,
      "agreement": 3910,
      "bowl": 3911,
      "suspicion": 3912,
      "anticip": 3913,
      "convin": 3914,
      "usually": 3915,
      "shuddered": 3916,
      "develop": 3917,
      "deliber": 3918,
      "ornithopter": 3919,
      "paradise": 3920,
      "occurred": 3921,
      "travel": 3922,
      "investig": 3923,
      "occasion": 3924,
      "double": 3925,
      "Family": 3926,
      "valuable": 3927,
      "especially": 3928,
      "Ac": 3929,
      "Go": 3930,
      "Gai": 3931,
      "Li": 3932,
      "Nor": 3933,
      "OR": 3934,
      "Zia": 3935,
      "afr": 3936,
      "aper": 3937,
      "aving": 3938,
      "bones": 3939,
      "cate": 3940,
      "dwell": 3941,
      "etern": 3942,
      "fanat": 3943,
      "mous": 3944,
      "mix": 3945,
      "named": 3946,
      "pour": 3947,
      "rust": 3948,
      "rise": 3949,
      "sometimes": 3950,
      "vul": 3951,
      "inf": 3952,
      "restr": 3953,
      "error": 3954,
      "encounter": 3955,
      "alt": 3956,
      "accompl": 3957,
      "immob": 3958,
      "ulars": 3959,
      "essence": 3960,
      "forcing": 3961,
      "weird": 3962,
      "moves": 3963,
      "degre": 3964,
      "detect": 3965,
      "perfect": 3966,
      "apt": 3967,
      "worried": 3968,
      "prog": 3969,
      "Butler": 3970,
      "guided": 3971,
      "ensive": 3972,
      "faith": 3973,
      "inevit": 3974,
      "igned": 3975,
      "talking": 3976,
      "closing": 3977,
      "slam": 3978,
      "affair": 3979,
      "party": 3980,
      "planets": 3981,
      "barren": 3982,
      "centur": 3983,
      "shadowed": 3984,
      "otic": 3985,
      "compul": 3986,
      "compass": 3987,
      "trip": 3988,
      "finally": 3989,
      "satis": 3990,
      "crystal": 3991,
      "bush": 3992,
      "afternoon": 3993,
      "happening": 3994,
      "answers": 3995,
      "grandfather": 3996,
      "pulse": 3997,
      "lovely": 3998,
      "walking": 3999,
      "patience": 4000,
      "hurried": 4001,
      "match": 4002,
      "Remember": 4003,
      "oddly": 4004,
      "rising": 4005,
      "spiration": 4006,
      "trembled": 4007,
      "collect": 4008,
      "threatened": 4009,
      "stead": 4010,
      "burned": 4011,
      "continue": 4012,
      "examined": 4013,
      "suspensors": 4014,
      "concerned": 4015,
      "separated": 4016,
      "bably": 4017,
      "awakened": 4018,
      "element": 4019,
      "lifting": 4020,
      "countless": 4021,
      "sadness": 4022,
      "frozen": 4023,
      "culture": 4024,
      "innocent": 4025,
      "higher": 4026,
      "micro": 4027,
      "brushed": 4028,
      "lonely": 4029,
      "destruction": 4030,
      "kilometers": 4031,
      "nervous": 4032,
      "pistol": 4033,
      "transmit": 4034,
      "Gaius": 4035,
      "afraid": 4036,
      "Know": 4037,
      "Man": 4038,
      "Master": 4039,
      "Und": 4040,
      "Vlad": 4041,
      "aked": 4042,
      "bought": 4043,
      "diet": 4044,
      "gig": 4045,
      "gged": 4046,
      "horn": 4047,
      "iers": 4048,
      "iosity": 4049,
      "knot": 4050,
      "mud": 4051,
      "nical": 4052,
      "ply": 4053,
      "pho": 4054,
      "shim": 4055,
      "uary": 4056,
      "heaven": 4057,
      "thered": 4058,
      "infinite": 4059,
      "recover": 4060,
      "remote": 4061,
      "ana": 4062,
      "attract": 4063,
      "enor": 4064,
      "assumpt": 4065,
      "seven": 4066,
      "seals": 4067,
      "illi": 4068,
      "belong": 4069,
      "becoming": 4070,
      "forth": 4071,
      "lored": 4072,
      "losing": 4073,
      "term": 4074,
      "terms": 4075,
      "trace": 4076,
      "abdu": 4077,
      "aming": 4078,
      "odors": 4079,
      "combat": 4080,
      "conside": 4081,
      "aps": 4082,
      "temper": 4083,
      "peer": 4084,
      "exer": 4085,
      "extended": 4086,
      "ify": 4087,
      "bless": 4088,
      "quality": 4089,
      "cks": 4090,
      "protest": 4091,
      "glaring": 4092,
      "deser": 4093,
      "background": 4094,
      "soo": 4095,
      "disquiet": 4096,
      "cling": 4097,
      "coin": 4098,
      "code": 4099,
      "ounced": 4100,
      "bore": 4101,
      "thank": 4102,
      "brilli": 4103,
      "ruled": 4104,
      "nerve": 4105,
      "Gesserits": 4106,
      "breeze": 4107,
      "waves": 4108,
      "obed": 4109,
      "skull": 4110,
      "windtrap": 4111,
      "shapes": 4112,
      "spot": 4113,
      "justice": 4114,
      "liter": 4115,
      "killer": 4116,
      "signaled": 4117,
      "feelings": 4118,
      "basic": 4119,
      "counted": 4120,
      "masters": 4121,
      "miss": 4122,
      "storms": 4123,
      "grandson": 4124,
      "leaders": 4125,
      "messages": 4126,
      "oculars": 4127,
      "solid": 4128,
      "priest": 4129,
      "southern": 4130,
      "household": 4131,
      "tune": 4132,
      "stirring": 4133,
      "possibilities": 4134,
      "victim": 4135,
      "tensions": 4136,
      "cket": 4137,
      "advanced": 4138,
      "maula": 4139,
      "device": 4140,
      "glowglobe": 4141,
      "poses": 4142,
      "failure": 4143,
      "occupied": 4144,
      "fifty": 4145,
      "alysis": 4146,
      "traditional": 4147,
      "husband": 4148,
      "twisting": 4149,
      "glistening": 4150,
      "lieutenant": 4151,
      "circumstances": 4152,
      "detected": 4153,
      "binoculars": 4154,
      "revenge": 4155,
      "behavior": 4156,
      "forgotten": 4157,
      "fiber": 4158,
      "Vladimir": 4159,
      "considered": 4160,
      "),": 4161,
      ").": 4162,
      ",'": 4163,
      "Cz": 4164,
      "Col": 4165,
      "Holy": 4166,
      "Pr": 4167,
      "Surely": 4168,
      "cit": 4169,
      "dart": 4170,
      "dull": 4171,
      "ew": 4172,
      "eag": 4173,
      "fly": 4174,
      "fief": 4175,
      "gau": 4176,
      "jihad": 4177,
      "lur": 4178,
      "lest": 4179,
      "mate": 4180,
      "money": 4181,
      "oom": 4182,
      "opers": 4183,
      "rs": 4184,
      "rite": 4185,
      "rear": 4186,
      "thod": 4187,
      "thopters": 4188,
      "encountered": 4189,
      "tori": 4190,
      "arled": 4191,
      "assa": 4192,
      "stag": 4193,
      "adult": 4194,
      "admit": 4195,
      "semut": 4196,
      "seldom": 4197,
      "bell": 4198,
      "ache": 4199,
      "roll": 4200,
      "meter": 4201,
      "mechan": 4202,
      "uttered": 4203,
      "wee": 4204,
      "vert": 4205,
      "supre": 4206,
      "shown": 4207,
      "sharing": 4208,
      "composed": 4209,
      "remaining": 4210,
      "pool": 4211,
      "agents": 4212,
      "aks": 4213,
      "pect": 4214,
      "ours": 4215,
      "ctions": 4216,
      "bles": 4217,
      "blast": 4218,
      "blame": 4219,
      "blink": 4220,
      "tile": 4221,
      "ept": 4222,
      "waters": 4223,
      "watcher": 4224,
      "stock": 4225,
      "sockets": 4226,
      "favor": 4227,
      "presume": 4228,
      "claim": 4229,
      "lightly": 4230,
      "planetologist": 4231,
      "talked": 4232,
      "drown": 4233,
      "intense": 4234,
      "cloth": 4235,
      "shouldn": 4236,
      "everyone": 4237,
      "slain": 4238,
      "forming": 4239,
      "betro": 4240,
      "looks": 4241,
      "questing": 4242,
      "partly": 4243,
      "internal": 4244,
      "refer": 4245,
      "Should": 4246,
      "flood": 4247,
      "minis": 4248,
      "reluct": 4249,
      "religions": 4250,
      "liness": 4251,
      "tempted": 4252,
      "tempor": 4253,
      "pull": 4254,
      "sweep": 4255,
      "positions": 4256,
      "squee": 4257,
      "burst": 4258,
      "approaching": 4259,
      "circ": 4260,
      "drive": 4261,
      "argued": 4262,
      "leaping": 4263,
      "itudes": 4264,
      "measured": 4265,
      "mistakes": 4266,
      "population": 4267,
      "crossing": 4268,
      "pleasant": 4269,
      "multitude": 4270,
      "tunnel": 4271,
      "Which": 4272,
      "ecological": 4273,
      "maintained": 4274,
      "achieved": 4275,
      "duty": 4276,
      "gentle": 4277,
      "characterist": 4278,
      "gathering": 4279,
      "knees": 4280,
      "inhib": 4281,
      "jerked": 4282,
      "piece": 4283,
      "situation": 4284,
      "Like": 4285,
      "Butlerian": 4286,
      "centuries": 4287,
      "Czigo": 4288,
      "semuta": 4289,
      "supreme": 4290,
      "IS": 4291,
      "LA": 4292,
      "Lich": 4293,
      "Light": 4294,
      "List": 4295,
      "Ple": 4296,
      "Sometimes": 4297,
      "US": 4298,
      "Way": 4299,
      "Wait": 4300,
      "aunt": 4301,
      "ball": 4302,
      "dinner": 4303,
      "eu": 4304,
      "hill": 4305,
      "kis": 4306,
      "kob": 4307,
      "mater": 4308,
      "navig": 4309,
      "ote": 4310,
      "ology": 4311,
      "pou": 4312,
      "pen": 4313,
      "rag": 4314,
      "sly": 4315,
      "sop": 4316,
      "size": 4317,
      "tan": 4318,
      "tab": 4319,
      "usel": 4320,
      "van": 4321,
      "vation": 4322,
      "vine": 4323,
      "vention": 4324,
      "wand": 4325,
      "zone": 4326,
      "reaching": 4327,
      "erness": 4328,
      "asse": 4329,
      "stained": 4330,
      "stick": 4331,
      "sex": 4332,
      "sees": 4333,
      "sell": 4334,
      "liked": 4335,
      "liqu": 4336,
      "fection": 4337,
      "irt": 4338,
      "allowing": 4339,
      "outlined": 4340,
      "terr": 4341,
      "spend": 4342,
      "frust": 4343,
      "trail": 4344,
      "ples": 4345,
      "plas": 4346,
      "arer": 4347,
      "worry": 4348,
      "pot": 4349,
      "resent": 4350,
      "agony": 4351,
      "aud": 4352,
      "ifa": 4353,
      "Leave": 4354,
      "grown": 4355,
      "eyed": 4356,
      "pressing": 4357,
      "presently": 4358,
      "enses": 4359,
      "pret": 4360,
      "disgu": 4361,
      "clen": 4362,
      "twice": 4363,
      "strang": 4364,
      "planned": 4365,
      "ignity": 4366,
      "brows": 4367,
      "pleaded": 4368,
      "ruler": 4369,
      "carries": 4370,
      "clothing": 4371,
      "itement": 4372,
      "crew": 4373,
      "clever": 4374,
      "tyard": 4375,
      "guarded": 4376,
      "curve": 4377,
      "curiosity": 4378,
      "Mothers": 4379,
      "courtyard": 4380,
      "litter": 4381,
      "parts": 4382,
      "deepest": 4383,
      "reading": 4384,
      "broad": 4385,
      "futures": 4386,
      "ivity": 4387,
      "rested": 4388,
      "Through": 4389,
      "bloody": 4390,
      "riding": 4391,
      "keeping": 4392,
      "northern": 4393,
      "hunting": 4394,
      "joining": 4395,
      "venture": 4396,
      "ficient": 4397,
      "carryall": 4398,
      "troops": 4399,
      "dominated": 4400,
      "possession": 4401,
      "tightly": 4402,
      "burner": 4403,
      "prepare": 4404,
      "marks": 4405,
      "heartbeat": 4406,
      "pacing": 4407,
      "popul": 4408,
      "popular": 4409,
      "observed": 4410,
      "scram": 4411,
      "indicated": 4412,
      "succeed": 4413,
      "suffer": 4414,
      "responsibility": 4415,
      "primitive": 4416,
      "number": 4417,
      "Chakob": 4418,
      "Poss": 4419,
      "currents": 4420,
      "angled": 4421,
      "protection": 4422,
      "glittered": 4423,
      "town": 4424,
      "secure": 4425,
      "atomics": 4426,
      "sanct": 4427,
      "fissure": 4428,
      "manufacture": 4429,
      "Human": 4430,
      "obliter": 4431,
      "chaos": 4432,
      "enormous": 4433,
      "Lichna": 4434,
      "Chakobsa": 4435,
      "Am": 4436,
      "Cons": 4437,
      "Cont": 4438,
      "ES": 4439,
      "Si": 4440,
      "Str": 4441,
      "Spe": 4442,
      "Tari": 4443,
      "cin": 4444,
      "cam": 4445,
      "danced": 4446,
      "dignity": 4447,
      "ead": 4448,
      "gif": 4449,
      "gments": 4450,
      "gathered": 4451,
      "hint": 4452,
      "lum": 4453,
      "sort": 4454,
      "sick": 4455,
      "var": 4456,
      "init": 4457,
      "inhabit": 4458,
      "recall": 4459,
      "anna": 4460,
      "atop": 4461,
      "isms": 4462,
      "arch": 4463,
      "ador": 4464,
      "ower": 4465,
      "iles": 4466,
      "ication": 4467,
      "implic": 4468,
      "veil": 4469,
      "entour": 4470,
      "rolling": 4471,
      "whipped": 4472,
      "forgive": 4473,
      "mock": 4474,
      "fellow": 4475,
      "defin": 4476,
      "load": 4477,
      "sures": 4478,
      "spark": 4479,
      "spilled": 4480,
      "shift": 4481,
      "gered": 4482,
      "conve": 4483,
      "tex": 4484,
      "pol": 4485,
      "pockets": 4486,
      "expo": 4487,
      "exotic": 4488,
      "fol": 4489,
      "cany": 4490,
      "quot": 4491,
      "antage": 4492,
      "mention": 4493,
      "oused": 4494,
      "guess": 4495,
      "actual": 4496,
      "pride": 4497,
      "diseng": 4498,
      "clue": 4499,
      "cove": 4500,
      "colored": 4501,
      "trees": 4502,
      "smiling": 4503,
      "longed": 4504,
      "assess": 4505,
      "draper": 4506,
      "intended": 4507,
      "sideways": 4508,
      "torn": 4509,
      "humanity": 4510,
      "substance": 4511,
      "jected": 4512,
      "speaker": 4513,
      "touching": 4514,
      "parted": 4515,
      "tenance": 4516,
      "instead": 4517,
      "Behind": 4518,
      "legal": 4519,
      "refuse": 4520,
      "company": 4521,
      "ugs": 4522,
      "wrink": 4523,
      "bub": 4524,
      "grandchildren": 4525,
      "banner": 4526,
      "snarled": 4527,
      "purple": 4528,
      "patro": 4529,
      "sweat": 4530,
      "easier": 4531,
      "capture": 4532,
      "nearby": 4533,
      "gested": 4534,
      "cerity": 4535,
      "product": 4536,
      "Relig": 4537,
      "Regency": 4538,
      "ctors": 4539,
      "arguments": 4540,
      "accum": 4541,
      "importance": 4542,
      "Comment": 4543,
      "seeker": 4544,
      "disturbing": 4545,
      "ierce": 4546,
      "transformation": 4547,
      "Always": 4548,
      "tricks": 4549,
      "sorry": 4550,
      "moral": 4551,
      "morrow": 4552,
      "strike": 4553,
      "transparent": 4554,
      "phone": 4555,
      "abandon": 4556,
      "awakening": 4557,
      "Suk": 4558,
      "smoke": 4559,
      "oracular": 4560,
      "vital": 4561,
      "blurred": 4562,
      "barely": 4563,
      "usual": 4564,
      "increas": 4565,
      "scanned": 4566,
      "arranged": 4567,
      "namon": 4568,
      "clamor": 4569,
      "communications": 4570,
      "echoed": 4571,
      "restore": 4572,
      "village": 4573,
      "relief": 4574,
      "absorbed": 4575,
      "potential": 4576,
      "emphasis": 4577,
      "structure": 4578,
      "wiped": 4579,
      "observation": 4580,
      "dimensions": 4581,
      "Mahdi": 4582,
      "Words": 4583,
      "title": 4584,
      "progress": 4585,
      "gigantic": 4586,
      "obedience": 4587,
      "Please": 4588,
      "poured": 4589,
      "useless": 4590,
      "Tariq": 4591,
      "entourage": 4592,
      "00": 4593,
      "Co": 4594,
      "Chan": 4595,
      "Fo": 4596,
      "IT": 4597,
      "Kral": 4598,
      "Pre": 4599,
      "Pal": 4600,
      "Spacing": 4601,
      "Tr": 4602,
      "batt": 4603,
      "cand": 4604,
      "ere": 4605,
      "fu": 4606,
      "fount": 4607,
      "iver": 4608,
      "iol": 4609,
      "ians": 4610,
      "jet": 4611,
      "mig": 4612,
      "masked": 4613,
      "nu": 4614,
      "ners": 4615,
      "oval": 4616,
      "pse": 4617,
      "pound": 4618,
      "rout": 4619,
      "treat": 4620,
      "task": 4621,
      "tipped": 4622,
      "vage": 4623,
      "yr": 4624,
      "inked": 4625,
      "influ": 4626,
      "rein": 4627,
      "regre": 4628,
      "reactions": 4629,
      "edged": 4630,
      "thirst": 4631,
      "enjoy": 4632,
      "assume": 4633,
      "aspect": 4634,
      "station": 4635,
      "admir": 4636,
      "seed": 4637,
      "ilos": 4638,
      "saving": 4639,
      "impr": 4640,
      "meal": 4641,
      "chill": 4642,
      "weighed": 4643,
      "feated": 4644,
      "redit": 4645,
      "deb": 4646,
      "river": 4647,
      "riers": 4648,
      "shell": 4649,
      "uncertain": 4650,
      "plun": 4651,
      "permission": 4652,
      "perspiration": 4653,
      "maneu": 4654,
      "apping": 4655,
      "teaching": 4656,
      "teacher": 4657,
      "pocket": 4658,
      "upper": 4659,
      "peering": 4660,
      "exit": 4661,
      "express": 4662,
      "otherwise": 4663,
      "blinked": 4664,
      "seeming": 4665,
      "Leven": 4666,
      "ersed": 4667,
      "proved": 4668,
      "probably": 4669,
      "atell": 4670,
      "willing": 4671,
      "endless": 4672,
      "handed": 4673,
      "desires": 4674,
      "voked": 4675,
      "mustn": 4676,
      "pregn": 4677,
      "distrust": 4678,
      "distrans": 4679,
      "clut": 4680,
      "claimed": 4681,
      "tree": 4682,
      "treated": 4683,
      "strous": 4684,
      "scattered": 4685,
      "sons": 4686,
      "board": 4687,
      "embar": 4688,
      "mostly": 4689,
      "carrier": 4690,
      "brech": 4691,
      "breathed": 4692,
      "serious": 4693,
      "slit": 4694,
      "reaches": 4695,
      "monstrous": 4696,
      "insisted": 4697,
      "interfe": 4698,
      "interrup": 4699,
      "lands": 4700,
      "finished": 4701,
      "pulling": 4702,
      "troopers": 4703,
      "wished": 4704,
      "reasoning": 4705,
      "hunters": 4706,
      "naked": 4707,
      "accepting": 4708,
      "Attend": 4709,
      "cats": 4710,
      "izec": 4711,
      "supplic": 4712,
      "steady": 4713,
      "folds": 4714,
      "mysti": 4715,
      "hesitation": 4716,
      "profit": 4717,
      "regular": 4718,
      "atory": 4719,
      "emptiness": 4720,
      "fitting": 4721,
      "stretching": 4722,
      "paper": 4723,
      "fastened": 4724,
      "possibly": 4725,
      "prediction": 4726,
      "film": 4727,
      "searched": 4728,
      "searching": 4729,
      "conditioning": 4730,
      "legends": 4731,
      "plantings": 4732,
      "suggested": 4733,
      "traces": 4734,
      "terrified": 4735,
      "survival": 4736,
      "avoiding": 4737,
      "separate": 4738,
      "emotional": 4739,
      "designed": 4740,
      "stayed": 4741,
      "success": 4742,
      "smooth": 4743,
      "fluid": 4744,
      "surrounded": 4745,
      "tiger": 4746,
      "Convention": 4747,
      "Priests": 4748,
      "bindu": 4749,
      "fragile": 4750,
      "rigid": 4751,
      "tracks": 4752,
      "activity": 4753,
      "duties": 4754,
      "sacred": 4755,
      "civilization": 4756,
      "excitement": 4757,
      "grabbed": 4758,
      "desperate": 4759,
      "exactly": 4760,
      "corridor": 4761,
      "disturbance": 4762,
      "earlier": 4763,
      "Certainly": 4764,
      "Ixian": 4765,
      "education": 4766,
      "mounted": 4767,
      "discipline": 4768,
      "issue": 4769,
      "plastic": 4770,
      "weirding": 4771,
      "slammed": 4772,
      "microphone": 4773,
      "Under": 4774,
      "betrothal": 4775,
      "pretty": 4776,
      "sanctuary": 4777,
      "folk": 4778,
      "Kralizec": 4779,
      "ilosop": 4780,
      "Levenbrech": 4781,
      "Bes": 4782,
      "Bey": 4783,
      "Min": 4784,
      "Ob": 4785,
      "Over": 4786,
      "Pl": 4787,
      "Pay": 4788,
      "Scar": 4789,
      "Um": 4790,
      "Wat": 4791,
      "Wind": 4792,
      "Wanna": 4793,
      "bill": 4794,
      "cough": 4795,
      "dum": 4796,
      "dressed": 4797,
      "ech": 4798,
      "ecut": 4799,
      "iom": 4800,
      "job": 4801,
      "lab": 4802,
      "lam": 4803,
      "lady": 4804,
      "lured": 4805,
      "luck": 4806,
      "mering": 4807,
      "nin": 4808,
      "pin": 4809,
      "pad": 4810,
      "pick": 4811,
      "pict": 4812,
      "race": 4813,
      "ses": 4814,
      "science": 4815,
      "satell": 4816,
      "tied": 4817,
      "vari": 4818,
      "zer": 4819,
      "thee": 4820,
      "inating": 4821,
      "oning": 4822,
      "atted": 4823,
      "enger": 4824,
      "enclosing": 4825,
      "tories": 4826,
      "tomorrow": 4827,
      "asm": 4828,
      "orted": 4829,
      "ale": 4830,
      "itious": 4831,
      "staff": 4832,
      "adept": 4833,
      "select": 4834,
      "lever": 4835,
      "leather": 4836,
      "imbas": 4837,
      "ghost": 4838,
      "roying": 4839,
      "ession": 4840,
      "method": 4841,
      "uted": 4842,
      "wearing": 4843,
      "verted": 4844,
      "determin": 4845,
      "lot": 4846,
      "outline": 4847,
      "spite": 4848,
      "shatter": 4849,
      "trade": 4850,
      "persu": 4851,
      "perman": 4852,
      "apo": 4853,
      "appreci": 4854,
      "opoly": 4855,
      "ague": 4856,
      "explan": 4857,
      "execut": 4858,
      "blan": 4859,
      "blown": 4860,
      "blank": 4861,
      "hated": 4862,
      "grated": 4863,
      "proof": 4864,
      "garments": 4865,
      "rub": 4866,
      "sands": 4867,
      "prana": 4868,
      "speech": 4869,
      "dissol": 4870,
      "anyway": 4871,
      "string": 4872,
      "stranger": 4873,
      "scri": 4874,
      "brut": 4875,
      "assador": 4876,
      "armor": 4877,
      "ruling": 4878,
      "realizing": 4879,
      "nives": 4880,
      "swift": 4881,
      "carved": 4882,
      "shake": 4883,
      "shaken": 4884,
      "tort": 4885,
      "darkened": 4886,
      "signific": 4887,
      "monopoly": 4888,
      "throw": 4889,
      "throwing": 4890,
      "ultane": 4891,
      "distinct": 4892,
      "bases": 4893,
      "raid": 4894,
      "hooded": 4895,
      "ighlin": 4896,
      "restless": 4897,
      "sunset": 4898,
      "takes": 4899,
      "Forgive": 4900,
      "natives": 4901,
      "period": 4902,
      "wood": 4903,
      "banked": 4904,
      "calcul": 4905,
      "warren": 4906,
      "simultane": 4907,
      "require": 4908,
      "gloom": 4909,
      "join": 4910,
      "chambers": 4911,
      "ancestry": 4912,
      "ancestors": 4913,
      "suppress": 4914,
      "driven": 4915,
      "footsteps": 4916,
      "heavily": 4917,
      "instruments": 4918,
      "paid": 4919,
      "alien": 4920,
      "stronger": 4921,
      "emerge": 4922,
      "chairs": 4923,
      "Unless": 4924,
      "pilot": 4925,
      "True": 4926,
      "prophet": 4927,
      "thousands": 4928,
      "calmness": 4929,
      "central": 4930,
      "dependent": 4931,
      "welcome": 4932,
      "descend": 4933,
      "spectr": 4934,
      "suggestion": 4935,
      "fifteen": 4936,
      "middle": 4937,
      "frowned": 4938,
      "lasguns": 4939,
      "names": 4940,
      "illuminated": 4941,
      "glittering": 4942,
      "threads": 4943,
      "mourning": 4944,
      "grasp": 4945,
      "relationship": 4946,
      "relationships": 4947,
      "struggle": 4948,
      "cushions": 4949,
      "Assan": 4950,
      "Death": 4951,
      "darted": 4952,
      "Maker": 4953,
      "limitations": 4954,
      "Judge": 4955,
      "curtain": 4956,
      "according": 4957,
      "pouring": 4958,
      "Knowing": 4959,
      "clenched": 4960,
      "cinnamon": 4961,
      "draperies": 4962,
      "Change": 4963,
      "Palimbas": 4964,
      "regret": 4965,
      "mystique": 4966,
      "Beyond": 4967,
      "Scarface": 4968,
      "Palimbasha": 4969,
      "AS": 4970,
      "Amb": 4971,
      "Bu": 4972,
      "Dis": 4973,
      "Mem": 4974,
      "Power": 4975,
      "School": 4976,
      "Tan": 4977,
      "Ter": 4978,
      "Than": 4979,
      "backed": 4980,
      "cers": 4981,
      "cence": 4982,
      "case": 4983,
      "dial": 4984,
      "faded": 4985,
      "fierce": 4986,
      "hit": 4987,
      "kwisatz": 4988,
      "mn": 4989,
      "oil": 4990,
      "pon": 4991,
      "pion": 4992,
      "rab": 4993,
      "sno": 4994,
      "sip": 4995,
      "tug": 4996,
      "zy": 4997,
      "hest": 4998,
      "reward": 4999
    },
    "merges": [
      "h e",
      "t he",
      "i n",
      "r e",
      "a n",
      "o u",
      "e d",
      "t h",
      "o n",
      "a t",
      "e r",
      "e n",
      "i s",
      "t o",
      "e s",
      "in g",
      "a r",
      "o f",
      "a s",
      "o r",
      "a l",
      "i t",
      "an d",
      "s t",
      "i d",
      "a d",
      "o w",
      "s e",
      "i l",
      "i c",
      "b e",
      "o m",
      "a c",
      "l e",
      "s a",
      "i m",
      "g h",
      "h is",
      "T he",
      "v e",
      "y ou",
      "l d",
      "u l",
      "i on",
      ". \"",
      "l i",
      "en t",
      "sa id",
      "n o",
      "r o",
      ", \"",
      "es s",
      "he r",
      "th at",
      "m e",
      "gh t",
      "l y",
      "u t",
      "n d",
      "c h",
      "w as",
      "i th",
      "u r",
      "w h",
      "a y",
      "f or",
      "w e",
      "w ith",
      "h ad",
      "m o",
      "f e",
      "i r",
      "n e",
      "H e",
      "re d",
      "c e",
      "v er",
      "k e",
      "h im",
      "d e",
      "l o",
      "ou ld",
      "the r",
      "al l",
      "r i",
      "ou t",
      "P a",
      "h a",
      "Pa ul",
      "a in",
      "t er",
      "s u",
      "il l",
      "s he",
      "s p",
      "l l",
      "no t",
      "f r",
      "? \"",
      "th is",
      "u n",
      "on e",
      "s h",
      "t r",
      "a b",
      "e t",
      "a m",
      "n ow",
      "p l",
      "fr om",
      "k ed",
      "p er",
      "g e",
      "- -",
      "a re",
      "ar d",
      "in d",
      "t ed",
      "o d",
      "u s",
      "m an",
      "c om",
      "c on",
      "a w",
      "re m",
      "a p",
      "m y",
      "o p",
      "Y ou",
      "I t",
      "u st",
      "th ou",
      "he re",
      "t e",
      "w or",
      "p o",
      "S he",
      "re s",
      "ac e",
      "th ing",
      "ic e",
      "d o",
      "h o",
      "a g",
      "at ion",
      "ow n",
      "u p",
      "se l",
      "ic a",
      "a k",
      "J ess",
      "Jess ica",
      "ou nd",
      "b y",
      "b ut",
      "p e",
      "c ould",
      "es t",
      "a u",
      "k now",
      "e x",
      "f o",
      "o ther",
      "the m",
      "you r",
      "ac k",
      "c an",
      "sel f",
      "ou r",
      "c t",
      "ha ve",
      "A nd",
      "in to",
      "i f",
      "b l",
      "ic h",
      "q u",
      "h at",
      "t il",
      "thou ght",
      "the y",
      "an t",
      "i g",
      "m ent",
      "on g",
      "i ght",
      "we re",
      "w ay",
      "ou s",
      "wh ich",
      "c k",
      "id e",
      "se e",
      "the ir",
      "L e",
      "h an",
      "the re",
      "g r",
      "er s",
      "F rem",
      "o k",
      "o l",
      "p ro",
      "om e",
      "at e",
      "Frem en",
      "e y",
      "i b",
      "li a",
      "is t",
      "w ill",
      "Le to",
      "s ed",
      "A lia",
      "g ar",
      "it s",
      "en d",
      "ur n",
      "h and",
      "S til",
      "u re",
      "The y",
      "! \"",
      "be en",
      "it y",
      "e p",
      "o ver",
      "he d",
      "n ess",
      "B ut",
      "W e",
      "w ould",
      "Stil gar",
      "i ve",
      "er t",
      "g l",
      "r ou",
      "as t",
      "p ed",
      "t urn",
      "d es",
      "v o",
      "w at",
      "a me",
      "f l",
      "t im",
      "r u",
      "o ld",
      "wh at",
      "v ed",
      "en e",
      "s to",
      "m ust",
      "wh o",
      "a th",
      "s s",
      "as ked",
      "v en",
      "en ce",
      "in k",
      "ar k",
      "b ack",
      "r y",
      "a ke",
      "p res",
      "ne w",
      "i e",
      "il d",
      "s and",
      "l ed",
      "c i",
      "g o",
      "s ome",
      "g u",
      "he n",
      "mo re",
      "i es",
      "e l",
      "D u",
      "The re",
      "s o",
      "u nd",
      "on ly",
      "at ed",
      "ion s",
      "i z",
      "ac t",
      "l t",
      "p t",
      "en s",
      "f a",
      "ey es",
      "u e",
      "ver y",
      "f ace",
      "li ke",
      "a ve",
      "vo ice",
      "u d",
      "u m",
      "i re",
      "W hat",
      "an ce",
      "an g",
      "B ar",
      "re at",
      "rou gh",
      "w here",
      "he ad",
      "fe lt",
      "c ed",
      "Bar on",
      "p r",
      "p re",
      "sp e",
      "ag ain",
      "w ard",
      "ac h",
      "d is",
      "d own",
      "v es",
      "h as",
      "wat er",
      "a red",
      "an y",
      "c l",
      "sa w",
      "th rough",
      "st ill",
      "Du ke",
      "or d",
      "tim e",
      "c o",
      "m per",
      "wor d",
      "t re",
      "him self",
      "t w",
      "A r",
      "fo re",
      "at t",
      "turn ed",
      "com e",
      "ab le",
      "ab out",
      "ar t",
      "d a",
      "f t",
      "c ame",
      "or t",
      "N o",
      "st r",
      "Ar r",
      "th ink",
      "f ul",
      "in e",
      "d id",
      "o se",
      "s m",
      "li ght",
      "pl an",
      "ou n",
      "id es",
      "ad y",
      "des ert",
      "re n",
      "me m",
      "the n",
      "s c",
      "ain ed",
      "M u",
      "c hed",
      "again st",
      "p s",
      "han i",
      "h ow",
      "s on",
      "b o",
      "T his",
      "pl ace",
      "Mu ad",
      "w hen",
      "e m",
      "v ing",
      "l ow",
      "ig n",
      "t al",
      "I da",
      "Ida ho",
      "th an",
      "T hat",
      "b r",
      "ad e",
      "en ed",
      "l ong",
      "im a",
      "ri ght",
      "of f",
      "as s",
      "mo ther",
      "e ve",
      "ne y",
      "p le",
      "st and",
      "m en",
      "fa ther",
      "i et",
      "sa y",
      "und er",
      "C hani",
      "d r",
      "an ge",
      "ar m",
      "v is",
      "h y",
      "m and",
      "c all",
      "k new",
      "ar ound",
      "ing s",
      "r ul",
      "ro ss",
      "A tre",
      "G ur",
      "G han",
      "re al",
      "lo o",
      "Atre ides",
      "Gur ney",
      "Ghan ima",
      "ak is",
      "Arr akis",
      "con t",
      "n i",
      "mo st",
      "B ene",
      "F ar",
      "s w",
      "H aw",
      "c au",
      "c y",
      "h u",
      "n er",
      "i ous",
      "in t",
      "aw ay",
      "loo ked",
      "Haw at",
      "s en",
      "f ir",
      "m ind",
      "m ed",
      "op le",
      "i p",
      "c ar",
      "s ur",
      "al le",
      "M y",
      "ess er",
      "c lo",
      "i ed",
      "sp ice",
      "H is",
      "sh ould",
      "G esser",
      "s ide",
      "y e",
      "b re",
      "d en",
      "su ch",
      "y n",
      "it e",
      "s er",
      "a ge",
      "c re",
      "le ft",
      "H ow",
      "w a",
      "th ose",
      "Gesser it",
      "be fore",
      "li fe",
      "I n",
      "c ap",
      "e very",
      "-- \"",
      "H ark",
      "c r",
      "d ay",
      "pe ople",
      "word s",
      "on d",
      "on n",
      "ch ild",
      "to o",
      "D ib",
      "il e",
      "wor m",
      "Hark onn",
      "K yn",
      "b es",
      "ar s",
      "mper or",
      "Kyn es",
      "b le",
      "H alle",
      "c le",
      "Halle ck",
      "E mperor",
      "p ow",
      "s il",
      "be g",
      "e ven",
      "ac ross",
      "w om",
      "s l",
      "ie ld",
      "Far ad",
      "a ir",
      "ri ed",
      "with in",
      "ow ed",
      "for m",
      "o b",
      "s k",
      "ar n",
      "l ess",
      "he ard",
      "do or",
      "b er",
      "way s",
      "I rul",
      "Irul an",
      "is h",
      "g re",
      "thou gh",
      "e f",
      "g ed",
      "t ing",
      "mo ve",
      "b od",
      "ic k",
      "ne ver",
      "u ch",
      "is e",
      "mo ved",
      "p ped",
      "w ind",
      "ni fe",
      "re ac",
      "ne ed",
      "m ight",
      "ter s",
      "t le",
      "sh o",
      "t y",
      "ang er",
      "tw o",
      "c ess",
      "s ha",
      "gu ard",
      "h ind",
      "op en",
      "c ur",
      "om ent",
      "ro ck",
      "up on",
      "to r",
      "c es",
      "with out",
      "d ed",
      "p ut",
      "M other",
      "p p",
      "be t",
      "sp o",
      "W hy",
      "m oment",
      "t s",
      "an ced",
      "a z",
      "lo ok",
      "D o",
      "ro om",
      "I f",
      "j ust",
      "s it",
      "an other",
      "us ed",
      "c he",
      "hu man",
      "d u",
      "p as",
      "aw are",
      "b ed",
      "f ound",
      "be hind",
      "de ad",
      "man y",
      "c our",
      "sto od",
      "we ll",
      "or n",
      "her self",
      "qu est",
      "a f",
      "m ade",
      "ce pt",
      "un i",
      "i al",
      "l it",
      "ou th",
      "L ord",
      "L ady",
      "se en",
      "g et",
      "k ill",
      "p art",
      "plan et",
      "m ay",
      "iet ch",
      "d ark",
      "de ep",
      "s ign",
      "s ing",
      "st ep",
      "a v",
      "ch o",
      "cau se",
      "d on",
      "m on",
      "re e",
      "su b",
      "e red",
      "sa ge",
      "the se",
      "to ok",
      "de red",
      "u ild",
      "re ad",
      "on ce",
      "re nd",
      "at ter",
      "to ward",
      "ic al",
      "pow er",
      "wom an",
      "fe el",
      "bod y",
      "vis ion",
      "li f",
      "Y es",
      "t ake",
      "ou se",
      "m uch",
      "in s",
      "fe ar",
      "spo ke",
      "R eve",
      "p ort",
      "w on",
      "y ing",
      "can not",
      "ct ion",
      "j e",
      "po ss",
      "fir st",
      "be li",
      "ent ion",
      "spe ak",
      "th r",
      "c ted",
      "t ion",
      "some thing",
      "Reve rend",
      "m ake",
      "ar y",
      "se t",
      "f ac",
      "t ou",
      "te red",
      "gl anced",
      "hand s",
      "n ight",
      "to ld",
      "ation s",
      "b ro",
      "s ound",
      "a h",
      "b ar",
      "ul t",
      "mem or",
      "l ay",
      "A s",
      "d ist",
      "k ar",
      "on s",
      "thing s",
      "ow s",
      "ert ain",
      "S ard",
      "st ared",
      "au kar",
      "Sard aukar",
      "u se",
      "iz ed",
      "f ut",
      "p ar",
      "d re",
      "de ath",
      "no d",
      "N ow",
      "u al",
      "be y",
      "aware ness",
      "The n",
      "ver se",
      "c ent",
      "k nife",
      "r in",
      "w his",
      "un can",
      "p ast",
      "reac her",
      "b as",
      "k ing",
      "r a",
      "D uncan",
      "P reacher",
      "t en",
      "a x",
      "s had",
      "in st",
      "ou gh",
      "is ter",
      "su re",
      "con s",
      "Harkonn en",
      "B e",
      "F ey",
      "b ene",
      "c oun",
      "e ver",
      "g en",
      "g reat",
      "com mand",
      "Fey d",
      "s ietch",
      "call ed",
      "f ar",
      "he ld",
      "under stand",
      "wa it",
      "cour se",
      "ib le",
      "uni verse",
      "s ion",
      "i v",
      "ar ing",
      "ho od",
      "f ind",
      "il y",
      "au th",
      "G uild",
      "is on",
      "att ention",
      "o t",
      "ha ps",
      "bene ath",
      "g i",
      "w all",
      "b lo",
      "n g",
      "in ter",
      "le g",
      "sen se",
      "r ing",
      "w ant",
      "ho ld",
      "I s",
      "an k",
      "li g",
      "ain ing",
      "c ertain",
      "i gh",
      "tal e",
      "c or",
      "le arn",
      "te ll",
      "S cy",
      "W hen",
      "es h",
      "ent ly",
      "au ght",
      "fut ure",
      "Scy tale",
      "d if",
      "m it",
      "re st",
      "ow ing",
      "il ed",
      "do es",
      "nod ded",
      "m outh",
      "de mand",
      "quest ion",
      "or s",
      "g ive",
      "u red",
      "u res",
      "y et",
      "d anger",
      "re ady",
      "be cause",
      "you ng",
      "re f",
      "ap pe",
      "an s",
      "al ways",
      "be ing",
      "re mem",
      "ment s",
      "R auth",
      "l and",
      "su it",
      "rem ained",
      "Rauth a",
      "O ne",
      "d one",
      "bes ide",
      "com p",
      "fl esh",
      "ru g",
      "go od",
      "m as",
      "n ing",
      "le t",
      "sh ield",
      "know n",
      "I mper",
      "S h",
      "T o",
      "f ri",
      "g ain",
      "we en",
      "cont ro",
      "beg an",
      "at ing",
      "st ud",
      "bet ween",
      "W ith",
      "rou ght",
      "m s",
      "b it",
      "de c",
      "pe red",
      "b al",
      "b rought",
      "f lo",
      "wh y",
      "am ong",
      "pl ay",
      "t ri",
      "en ough",
      "no thing",
      "won dered",
      "f in",
      "l ing",
      "su n",
      "c us",
      "al ed",
      "sm all",
      "d ire",
      "m us",
      "u g",
      "er ing",
      "gh ol",
      "O n",
      "ch ing",
      "ab r",
      "S o",
      "m in",
      "n ame",
      "he l",
      "to ry",
      "it ies",
      "per son",
      "T h",
      "c a",
      "lo g",
      "ghol a",
      "g n",
      "it ion",
      "lit tle",
      "whis pered",
      "o ve",
      "S ome",
      "ter ri",
      "other s",
      "e v",
      "s y",
      "wor k",
      "ci ent",
      "A n",
      "en ing",
      "t ak",
      "bl ack",
      "F or",
      "m is",
      "s at",
      "s ent",
      "ro y",
      "mo tion",
      "sho ok",
      "c ry",
      "ro be",
      "ll ow",
      "con d",
      "W ho",
      "fri end",
      "w r",
      "oun t",
      "re l",
      "al ly",
      "ch ange",
      "in ner",
      "re co",
      "it er",
      "b u",
      "af ter",
      "g one",
      "n at",
      "ha pp",
      "re lig",
      "be come",
      "ant s",
      "H er",
      "ou b",
      "at er",
      "po int",
      "H ar",
      "s ens",
      "w ent",
      "re as",
      "per i",
      "bl ed",
      "sto r",
      "think ing",
      "e ach",
      "k ind",
      "l in",
      "me an",
      "T ye",
      "m ut",
      "as e",
      "al most",
      "fe ren",
      "pas sage",
      "beli eve",
      "Tye k",
      "blo od",
      "d den",
      "f ight",
      "ill ed",
      "po sed",
      "ci ous",
      "contro l",
      "H ouse",
      "w o",
      "re t",
      "su dden",
      "You r",
      "wor ld",
      "Y ue",
      "f all",
      "f act",
      "m ar",
      "an sw",
      "wh ile",
      "still suit",
      "No t",
      "Yue h",
      "ab ove",
      "led ge",
      "S e",
      "i red",
      "re ve",
      "on t",
      "tr aining",
      "gr and",
      "P rin",
      "b an",
      "s n",
      "v i",
      "is ed",
      "te m",
      "L et",
      "h id",
      "l ine",
      "po ison",
      "c al",
      "p ur",
      "r id",
      "er y",
      "tr u",
      "t able",
      "fe w",
      "tou ched",
      "p ul",
      "t est",
      "lo ve",
      "cau ght",
      "dre am",
      "c are",
      "g est",
      "i a",
      "i x",
      "t ly",
      "al ong",
      "il ity",
      "le ad",
      "memor y",
      "reco gn",
      "d est",
      "f ing",
      "g ave",
      "h op",
      "pres sed",
      "Harkonn ens",
      "move ment",
      "m es",
      "m ak",
      "as h",
      "sen sed",
      "M o",
      "P er",
      "l ast",
      "o c",
      "w ar",
      "ap ped",
      "car ried",
      "ser v",
      "gre en",
      "e ar",
      "w al",
      "bl ue",
      "d ust",
      "t ro",
      "un til",
      "op ter",
      "ful l",
      "bey ond",
      "danger ous",
      "W here",
      "b a",
      "n ed",
      "je ct",
      "s im",
      "w is",
      "w ish",
      "ir d",
      "bo th",
      "flo or",
      "P iter",
      "p at",
      "tr y",
      "aught er",
      "N am",
      "c ked",
      "v ious",
      "an ted",
      "su m",
      "sto pped",
      "beg in",
      "s ol",
      "es cap",
      "ke ep",
      "pl ac",
      "lif ted",
      "A ll",
      "s we",
      "sh all",
      "Per haps",
      "h al",
      "an i",
      "on to",
      "al ready",
      "im e",
      "tim es",
      "dec is",
      "Nam ri",
      "d oub",
      "po sit",
      "child ren",
      "a il",
      "c reat",
      "f am",
      "h ur",
      "p ri",
      "re qu",
      "ex peri",
      "A gain",
      "e as",
      "l ist",
      "p ass",
      "sil ence",
      "stor m",
      "am is",
      "J amis",
      "d am",
      "k s",
      "p ing",
      "ul ar",
      "ch ang",
      "fe et",
      "reas on",
      "S t",
      "T le",
      "g lo",
      "p lo",
      "p ath",
      "he ar",
      "com ple",
      "demand ed",
      "E dr",
      "n or",
      "sh ip",
      "tr ained",
      "act ion",
      "Tle il",
      "Edr ic",
      "c over",
      "h un",
      "p he",
      "p al",
      "s li",
      "lo st",
      "cap t",
      "dif feren",
      "answ er",
      "Tleil ax",
      "d ro",
      "li ve",
      "pas sed",
      "Har ah",
      "f ig",
      "n a",
      "w arn",
      "is ted",
      "al s",
      "ac cept",
      "ru m",
      "sil ent",
      "Tyek ani",
      "Tyekani k",
      "A h",
      "h igh",
      "j o",
      "t ent",
      "ne ar",
      "ll ed",
      "fr ont",
      "guard s",
      "s of",
      "we ap",
      "did n",
      "bre ath",
      "d i",
      "g es",
      "g ri",
      "ed ge",
      "sa me",
      "tr ust",
      "see ing",
      "pres ent",
      "A t",
      "a ther",
      "c er",
      "d ib",
      "f illed",
      "re sp",
      "re turned",
      "ch am",
      "sur face",
      "clo se",
      "remem ber",
      "r ow",
      "v ent",
      "in te",
      "th ro",
      "it self",
      "tr an",
      "br ing",
      "Imper ial",
      "Tleilax u",
      "d aughter",
      "f er",
      "com ing",
      "po se",
      "ie w",
      "feel ing",
      "th opter",
      "on es",
      "tr ay",
      "ment at",
      "pro du",
      "clo sed",
      "az e",
      "D on",
      "re turn",
      "ri es",
      "rem ain",
      "bro ther",
      "s qu",
      "t ried",
      "w anted",
      "in ation",
      "an cient",
      "mo ving",
      "op ened",
      "G reat",
      "b ur",
      "c at",
      "l ar",
      "m at",
      "re port",
      "id ed",
      "li ves",
      "su sp",
      "gr ow",
      "ye ars",
      "cons cious",
      "appe ared",
      "S ire",
      "l es",
      "p atter",
      "s ou",
      "v al",
      "an ces",
      "for ce",
      "Prin cess",
      "K or",
      "R e",
      "v iew",
      "in ted",
      "re ed",
      "li ps",
      "fe at",
      "sp ace",
      "fo ol",
      "shad ows",
      "Kor ba",
      "c ut",
      "c tor",
      "f ic",
      "g ing",
      "ne cess",
      "all owed",
      "tr ue",
      "sel ves",
      "ate ly",
      "ake en",
      "Arr akeen",
      "dr aw",
      "car ry",
      "t one",
      "in ess",
      "pres ence",
      "iz e",
      "h ar",
      "s ul",
      "mo ist",
      "su p",
      "od d",
      "dest roy",
      "patter n",
      "le ave",
      "ha ir",
      "con ce",
      "ap pro",
      "bl ind",
      "cle ar",
      "ob vious",
      "tru th",
      "d ie",
      "l im",
      "be tray",
      "ent ire",
      "ch ar",
      "gen er",
      "mes sage",
      "E ven",
      "M ent",
      "a j",
      "c ir",
      "ic s",
      "she d",
      "fo ll",
      "go ing",
      "spe ct",
      "rock s",
      "kill ed",
      "a ib",
      "s low",
      "in ed",
      "ex pl",
      "sk in",
      "thro at",
      "b orn",
      "c ro",
      "g aze",
      "h all",
      "p u",
      "r is",
      "s le",
      "ar p",
      "le ct",
      "per mit",
      "know s",
      "end ed",
      "We ll",
      "hal f",
      "Ment at",
      "o s",
      "id ent",
      "mo on",
      "el se",
      "M ur",
      "d ri",
      "d un",
      "g th",
      "l s",
      "se cre",
      "sp read",
      "gr ound",
      "stud ied",
      "tro op",
      "B i",
      "H ay",
      "m atter",
      "p ain",
      "an at",
      "me l",
      "for ced",
      "sp ir",
      "thought s",
      "bet ter",
      "Hay t",
      "c as",
      "r un",
      "t rem",
      "fe ll",
      "if t",
      "att le",
      "terri ble",
      "D id",
      "h ouse",
      "m ing",
      "w ond",
      "bl ing",
      "Du ne",
      "moist ure",
      "E very",
      "c u",
      "c ing",
      "c ol",
      "s end",
      "th reat",
      "al one",
      "bo y",
      "long er",
      "arm s",
      "med i",
      "dire ct",
      "j ud",
      "sh arp",
      "who se",
      "some one",
      "sing le",
      "lif f",
      "wait ing",
      "S ister",
      "c old",
      "c liff",
      "ar gu",
      "it ed",
      "st e",
      "for ward",
      "ke pt",
      "de p",
      "know ledge",
      "ful ly",
      "memor ies",
      "tak en",
      "O h",
      "W as",
      "l an",
      "in v",
      "ad d",
      "tr a",
      "fo ld",
      "bl ade",
      "see med",
      "ci al",
      "ug gl",
      "cham ber",
      "Mur iz",
      "P res",
      "d om",
      "o bey",
      "t es",
      "ou d",
      "as k",
      "ic es",
      "not ed",
      "my st",
      "str ange",
      "poss ible",
      "C al",
      "T e",
      "t u",
      "he sit",
      "sa fe",
      "ver s",
      "old en",
      "sub tle",
      "poss ess",
      "cry sk",
      "C ount",
      "b ing",
      "d ry",
      "w it",
      "ac c",
      "ut ion",
      "fe ct",
      "ain t",
      "my self",
      "te ct",
      "wat ched",
      "pres s",
      "pr of",
      "learn ed",
      "Sister hood",
      "g y",
      "th ree",
      "le ap",
      "me et",
      "ur ing",
      "com m",
      "rem ind",
      "your self",
      "H ave",
      "R ab",
      "f ree",
      "n ar",
      "s in",
      "t ight",
      "it u",
      "be low",
      "gl ow",
      "ci ence",
      "any thing",
      "dre w",
      "mel ange",
      "O f",
      "b urn",
      "h ard",
      "l er",
      "p ted",
      "s ister",
      "ad an",
      "per s",
      "fo ot",
      "pro ble",
      "go t",
      "che e",
      "fig ure",
      "Cal adan",
      "crysk nife",
      "Rab ban",
      "U sul",
      "re g",
      "st are",
      "il ing",
      "out side",
      "tr ap",
      "ex pe",
      "so on",
      "cl es",
      "ord er",
      "real ized",
      "hid den",
      "he av",
      "at or",
      "is hed",
      "He re",
      "qu ick",
      "em pt",
      "every thing",
      "dun es",
      "a the",
      "f at",
      "j az",
      "r ound",
      "mo t",
      "res s",
      "sm uggl",
      "comp an",
      "posit ion",
      "C or",
      "f it",
      "i had",
      "l ad",
      "w ild",
      "st ren",
      "de f",
      "sh out",
      "ey e",
      "sm iled",
      "cr ow",
      "step s",
      "On ly",
      "decis ion",
      "doub t",
      "Bi jaz",
      "s sed",
      "al ity",
      "st ret",
      "ent s",
      "ut e",
      "wh ite",
      "ag ed",
      "know ing",
      "real ly",
      "av id",
      "inst ru",
      "hel p",
      "b and",
      "m al",
      "y al",
      "an im",
      "ed ay",
      "le a",
      "me t",
      "pre p",
      "day s",
      "sk y",
      "look ing",
      "dark ness",
      "sof t",
      "a head",
      "p a",
      "am ed",
      "per haps",
      "stand ing",
      "recogn ized",
      "comple te",
      "J avid",
      "T hu",
      "c up",
      "c used",
      "he s",
      "an e",
      "me as",
      "for t",
      "sto p",
      "tw ins",
      "sm ile",
      "sc re",
      "pow ers",
      "Pres ently",
      "Thu fir",
      "C H",
      "m ist",
      "z e",
      "are n",
      "fo cused",
      "cont in",
      "step ped",
      "thr one",
      "rug ged",
      "escap e",
      "A re",
      "a im",
      "b attle",
      "c ise",
      "f ield",
      "g er",
      "i um",
      "m b",
      "m ark",
      "q anat",
      "s me",
      "s outh",
      "on y",
      "al i",
      "se cond",
      "be came",
      "im port",
      "fac es",
      "pul led",
      "k en",
      "p ack",
      "st em",
      "be red",
      "you th",
      "sh ow",
      "do ing",
      "qu iet",
      "pres sion",
      "str ong",
      "gi ven",
      "mus cles",
      "sn apped",
      "experi en",
      "T ime",
      "W ould",
      "W all",
      "g over",
      "i ves",
      "k in",
      "r or",
      "y es",
      "at ive",
      "me re",
      "ne x",
      "com es",
      "po inted",
      "reac hed",
      "fight ing",
      "begin ning",
      "C om",
      "H ad",
      "b est",
      "f ast",
      "st ru",
      "ac y",
      "ve red",
      "li ving",
      "ur al",
      "tr ying",
      "con f",
      "see k",
      "pr om",
      "att ack",
      "str a",
      "ye llow",
      "bas in",
      "inst ant",
      "hop e",
      "foll owed",
      "N aib",
      "Y et",
      "st ir",
      "st aring",
      "il t",
      "aw n",
      "turn ing",
      "em er",
      "worm s",
      "poss ib",
      "Cor rin",
      "d im",
      "i fe",
      "p red",
      "he art",
      "ou ght",
      "as ide",
      "ch air",
      "ex posed",
      "them selves",
      "cl im",
      "sl ave",
      "dist ur",
      "creat ure",
      "pri v",
      "sli pped",
      "stren gth",
      "stra ight",
      "T abr",
      "U n",
      "W ater",
      "b ird",
      "c ru",
      "i er",
      "m ur",
      "t end",
      "re pe",
      "to p",
      "im medi",
      "ne ck",
      "lo ved",
      "Do es",
      "tes ted",
      "A b",
      "W ill",
      "i an",
      "m er",
      "s al",
      "is m",
      "gr y",
      "gr im",
      "low ered",
      "orn ing",
      "sy stem",
      "relig ious",
      "lin es",
      "sudden ly",
      "vi ol",
      "secre t",
      "Te ll",
      "f il",
      "r it",
      "s our",
      "al ive",
      "me tal",
      "wh ir",
      "we ak",
      "ag es",
      "spe cial",
      "wom en",
      "sign al",
      "Imper ium",
      "cro ssed",
      "Corrin o",
      "S ha",
      "a ut",
      "c il",
      "h or",
      "m orning",
      "st ar",
      "se ar",
      "il ities",
      "im p",
      "tr ans",
      "speak ing",
      "fac ed",
      "mut tered",
      "pur pose",
      "itu de",
      "crow d",
      "G od",
      "J ac",
      "O ur",
      "c ity",
      "c ast",
      "e qu",
      "i tor",
      "w ound",
      "The se",
      "ex cept",
      "ous es",
      "feat ures",
      ". '",
      "F eday",
      "O r",
      "l en",
      "l au",
      "p il",
      "as ed",
      "le an",
      "The ir",
      "ut u",
      "ur utu",
      "un g",
      "ex ist",
      "ig hed",
      "fl ow",
      "say ing",
      "cr aw",
      "gre w",
      "che s",
      "du ne",
      "wall s",
      "mas ter",
      "relig ion",
      "grand mother",
      "weap on",
      "comm un",
      "Jac urutu",
      "Feday kin",
      "A l",
      "f al",
      "g as",
      "h und",
      "of ten",
      "il s",
      "ul ud",
      "tr ick",
      "am p",
      "if ic",
      "wait ed",
      "does n",
      "remem bered",
      "hund red",
      "f le",
      "h on",
      "p ac",
      "v ic",
      "at es",
      "ad ed",
      "li ved",
      "ce pted",
      "sh rugged",
      "us ion",
      "wat ch",
      "ord ers",
      "pp ing",
      "Sh ield",
      "wr ong",
      "fam ily",
      "chang ed",
      "inte rest",
      "A M",
      "J ihad",
      "m ach",
      "p or",
      "s or",
      "t ens",
      "th in",
      "or ig",
      "ri er",
      "ag reed",
      "could n",
      "if f",
      "han g",
      "ach ing",
      "should er",
      "cond ition",
      "Se e",
      "sme ll",
      "b ent",
      "c ul",
      "h h",
      "i ar",
      "p it",
      "p op",
      "r an",
      "su pp",
      "pl ic",
      "up ward",
      "qu ar",
      "wo re",
      "war f",
      "lan gu",
      "heav y",
      "prep ared",
      "B y",
      "P ro",
      "c ke",
      "t all",
      "w ide",
      "in ated",
      "id er",
      "ap es",
      "pr ice",
      "No thing",
      "bre ak",
      "form ation",
      "ob ser",
      "wind ow",
      "cho ice",
      "ref le",
      "friend s",
      "fing er",
      "fing ers",
      "sum mon",
      "nar row",
      "b ir",
      "g ift",
      "h our",
      "t ar",
      "ic t",
      "ac cepted",
      "fl at",
      "um p",
      "leg end",
      "appe ar",
      "lar ge",
      "gover n",
      "d ied",
      "f ix",
      "o per",
      "o od",
      "in y",
      "on ed",
      "en se",
      "or dered",
      "al ing",
      "ad v",
      "his tory",
      "ul l",
      "no se",
      "sh ort",
      "tr out",
      "Far ok",
      "tou ch",
      "bit ter",
      "sim ple",
      "mere ly",
      "bir th",
      "M apes",
      "S uch",
      "T ru",
      "a ft",
      "h ide",
      "i res",
      "s light",
      "st ate",
      "be aut",
      "ul y",
      "me ters",
      "pl ant",
      "us ing",
      "gr ay",
      "ra ised",
      "cor ner",
      "dif fic",
      "wal ked",
      "proble m",
      "F r",
      "w ing",
      "in ing",
      "is et",
      "of fe",
      "st re",
      "id ing",
      "om ination",
      "im ag",
      "su g",
      "tr ac",
      "tr uly",
      "ex am",
      "pro per",
      "pro phe",
      "dis cus",
      "vis ions",
      "shad ow",
      "bal iset",
      "terri f",
      "nat ural",
      "tem pt",
      "mak er",
      "empt y",
      ". )",
      "H ouses",
      "S ay",
      "S low",
      "c ross",
      "f our",
      "i ent",
      "l as",
      "m a",
      "t ic",
      "w ise",
      "and s",
      "ic ked",
      "ac hed",
      "thou sand",
      "gr ou",
      "sur v",
      "sha red",
      "sound s",
      "mean ing",
      "mar ked",
      "plac ed",
      "fam il",
      "dro pped",
      "susp ens",
      "hesit ated",
      "wit ch",
      "Slow ly",
      "S ietch",
      "m or",
      "t aught",
      "at z",
      "er ach",
      "st iff",
      "ke y",
      "man ner",
      "com put",
      "wor ked",
      "gu ide",
      "iz ation",
      "tal k",
      "say s",
      "should ers",
      "cho ol",
      "mas k",
      "tak ing",
      "cal m",
      "wis atz",
      "St ill",
      "differen t",
      "orig in",
      "a vo",
      "b ound",
      "e ep",
      "h ome",
      "o ok",
      "st ri",
      "ic tion",
      "ent ered",
      "de v",
      "lo yal",
      "not e",
      "fo od",
      "fo llow",
      "sand trout",
      "act ions",
      "pre cise",
      "ple as",
      "ip ped",
      "beli e",
      "bro ke",
      "With out",
      "mus ic",
      "person al",
      "direct ly",
      "sin ce",
      "viol ence",
      "E R",
      "c ave",
      "i ence",
      "re moved",
      "an gry",
      "to od",
      "as ter",
      "ad i",
      "le ast",
      "tr ad",
      "ho se",
      "ers tood",
      "gl ance",
      "tim ate",
      "ru le",
      "who le",
      "pres cience",
      "sc r",
      "ef fect",
      "dist ance",
      "Be cause",
      "tri be",
      "tran sp",
      "sle ep",
      "stret ched",
      "contin u",
      "F en",
      "O they",
      "S ab",
      "T hose",
      "b ad",
      "d warf",
      "l a",
      "m il",
      "p h",
      "p an",
      "u ck",
      "w he",
      "w ings",
      "re le",
      "en er",
      "al u",
      "de t",
      "tr ou",
      "con cer",
      "wor king",
      "sw allowed",
      "sho ck",
      "sha pe",
      "play ed",
      "An y",
      "roy al",
      "sens es",
      "reve aled",
      "lead er",
      "conscious ness",
      "glow glo",
      "CH O",
      "Sha i",
      "Othey m",
      "L iet",
      "i ha",
      "m ult",
      "n on",
      "th um",
      "al so",
      "se par",
      "ro de",
      "ind ic",
      "my th",
      "ho le",
      "wat ching",
      "und erstood",
      "fore head",
      "cr aft",
      "hold ing",
      "mis sion",
      "happ ened",
      "gri ef",
      "tra itor",
      "shout ed",
      "fal se",
      "Fen ring",
      "Sab iha",
      "CHO AM",
      "C oun",
      "b ri",
      "c um",
      "c ord",
      "e motion",
      "p air",
      "t ong",
      "ac her",
      "ro bes",
      "mo b",
      "sh if",
      "ge ther",
      "po s",
      "des ign",
      "real ity",
      "coun ter",
      "On ce",
      "plac es",
      "trem bling",
      "lea ving",
      "hang ings",
      "Coun cil",
      "N ef",
      "b ab",
      "b uild",
      "g un",
      "g ment",
      "i ps",
      "r as",
      "s ight",
      "s ighed",
      "in es",
      "th y",
      "th us",
      "is n",
      "ent y",
      "ver n",
      "ab and",
      "po or",
      "ag ree",
      "need ed",
      "sub ject",
      "rel ax",
      "experi ence",
      "weap ons",
      "import ant",
      "quar ters",
      "diffic ult",
      "Nef ud",
      "K eep",
      "T wo",
      "a ven",
      "b us",
      "b ig",
      "g ir",
      "l ic",
      "t un",
      "he at",
      "at tered",
      "ad just",
      "ent r",
      "ir st",
      "de ar",
      "ha w",
      "ain s",
      "aw ak",
      "pe ered",
      "ex pression",
      "ie f",
      "call ing",
      "form al",
      "human s",
      "quest ions",
      "ca ution",
      "warn ed",
      "remind ed",
      "mal e",
      "m ir",
      "en cy",
      "ar ose",
      "st ay",
      "st one",
      "id ence",
      "for med",
      "for ces",
      "ter n",
      "su c",
      "su per",
      "su its",
      "su spect",
      "bo ok",
      "off ic",
      "bre ed",
      "move ments",
      "open ing",
      "ca vern",
      "wal k",
      "cat ch",
      "permit ted",
      "wond er",
      "possess ed",
      "mot ions",
      "hor iz",
      "lean ed",
      "Fr om",
      "C an",
      "F ali",
      "L ands",
      "O ld",
      "S u",
      "b ow",
      "g od",
      "m ine",
      "r ich",
      "s mo",
      "s ix",
      "or ac",
      "al ert",
      "se qu",
      "ve l",
      "li e",
      "ter ing",
      "sp ok",
      "gr owing",
      "fa il",
      "att end",
      "part ic",
      "cent r",
      "understand ing",
      "log ical",
      "chee ks",
      "nex t",
      "langu age",
      "famil iar",
      "horiz on",
      "S alu",
      "d rug",
      "e le",
      "f ur",
      "f un",
      "m p",
      "r age",
      "t ank",
      "w ave",
      "in ct",
      "re ct",
      "at a",
      "en g",
      "li ft",
      "ro lled",
      "me ant",
      "for get",
      "ce ll",
      "ab ility",
      "com mon",
      "fl u",
      "iz ing",
      "ang ers",
      "cle an",
      "ra ad",
      "inter pre",
      "happ en",
      "gest ure",
      "requ ired",
      "dep end",
      "Ab omination",
      "Salu sa",
      "E x",
      "M any",
      "P e",
      "S had",
      "V o",
      "W ens",
      "b right",
      "c her",
      "d are",
      "e h",
      "l ate",
      "t as",
      "in de",
      "at ic",
      "at ors",
      "to tal",
      "to gether",
      "ic ia",
      "was n",
      "we l",
      "pl ain",
      "est y",
      "ex plo",
      "pro tested",
      "pr ay",
      "dr ink",
      "sur pr",
      "sign s",
      "thr ong",
      "cus to",
      "pal m",
      "leap ed",
      "rit ual",
      "sour ce",
      "gir l",
      "Lands raad",
      "Wens icia",
      "A no",
      "E ach",
      "G olden",
      "l ater",
      "m ag",
      "s ink",
      "s word",
      "v it",
      "ac ked",
      "ve lo",
      "su f",
      "un t",
      "tr ance",
      "ab sol",
      "qu ite",
      "plan ted",
      "clo ser",
      "dead ly",
      "thr ust",
      "dist ant",
      "cons ider",
      "bal ance",
      "eas ily",
      "resp ons",
      "susp ic",
      "betray ed",
      "wond ering",
      "prof ound",
      "compan ion",
      "anim al",
      "whir led",
      "grou p",
      "Ano ther",
      "D es",
      "Z en",
      "e th",
      "f ire",
      "f abr",
      "o ch",
      "en ces",
      "it ions",
      "st art",
      "ho ok",
      "up t",
      "pe ace",
      "hat e",
      "ant ic",
      "pro tect",
      "des c",
      "pr act",
      "co vered",
      "sur round",
      "coun t",
      "great er",
      "mit ted",
      "log ist",
      "Some thing",
      "dream s",
      "decis ions",
      "report s",
      "slow ly",
      "expl ain",
      "expe ct",
      "athe d",
      "priv ate",
      "craw ler",
      "Tru th",
      "continu ed",
      "tong ue",
      "G hani",
      "V ery",
      "g ame",
      "l aw",
      "p ay",
      "p et",
      "t ig",
      "z z",
      "was te",
      "out er",
      "pl ed",
      "ap e",
      "ene my",
      "um bled",
      "vis ible",
      "fir m",
      "cre st",
      "cle ared",
      "door way",
      "sha re",
      "cho ose",
      "command ed",
      "gi ving",
      "escap ed",
      "remain s",
      "argu ment",
      "obey ed",
      "complete ly",
      "hon or",
      "govern ment",
      "Zen sun",
      "C on",
      "K wisatz",
      "M aj",
      "P ri",
      "b at",
      "b ank",
      "d awn",
      "f right",
      "i ther",
      "m ass",
      "o th",
      "s ad",
      "s ne",
      "s chool",
      "im es",
      "ul timate",
      "li p",
      "de mon",
      "tr act",
      "et y",
      "con v",
      "if ul",
      "spe c",
      "off er",
      "hy th",
      "ip ment",
      "sy mb",
      "oc cup",
      "serv ice",
      "list en",
      "differen ce",
      "pu shed",
      "tu be",
      "meet ing",
      "aim ed",
      "experien ced",
      "Had erach",
      "sug gest",
      "ener gy",
      "entr ance",
      "spok en",
      "Zensun ni",
      "A N",
      "L ife",
      "W h",
      "b ind",
      "d er",
      "d iv",
      "f ro",
      "f if",
      "f ist",
      "f ive",
      "f ought",
      "g olden",
      "t a",
      "t on",
      "y ed",
      "in formation",
      "th s",
      "to day",
      "it ive",
      "om et",
      "ul och",
      "lo se",
      "fr ag",
      "te ars",
      "ol s",
      "hand le",
      "fl owing",
      "so ci",
      "pr im",
      "form s",
      "az a",
      "Sh uloch",
      "stud ying",
      "fin ite",
      "swe pt",
      "produ ced",
      "har sh",
      "conce aled",
      "ris k",
      "smuggl ers",
      "instru ment",
      "equ ipment",
      "supp ort",
      "fix ed",
      "C ould",
      "a thing",
      "l oud",
      "r hyth",
      "t iny",
      "ing ly",
      "ar i",
      "as hed",
      "se at",
      "sa ve",
      "ch ance",
      "not ing",
      "te ach",
      "ag o",
      "est s",
      "vo ices",
      "pres cient",
      "fa iled",
      "pre vent",
      "any one",
      "tw enty",
      "sc ar",
      "ser ve",
      "ob ject",
      "sho cked",
      "ual ly",
      "land ing",
      "Th us",
      "Se c",
      "care fully",
      "list ened",
      "Ah hh",
      "repe ated",
      "star ted",
      "tar get",
      "haw k",
      "Vo ice",
      "b s",
      "f aint",
      "h ulud",
      "k y",
      "t led",
      "t ired",
      "w arm",
      "he ir",
      "or ange",
      "be ar",
      "mo te",
      "fe ars",
      "de lic",
      "ri g",
      "un able",
      "fo cus",
      "bl ur",
      "see king",
      "iz ar",
      "pr ison",
      "pre ci",
      "co st",
      "sc ow",
      "bre ast",
      "bod ies",
      "cur ity",
      "ev il",
      "necess ary",
      "cke ts",
      "terrif ying",
      "A L",
      "O ut",
      "T ue",
      "b are",
      "b ers",
      "b bed",
      "d ata",
      "e per",
      "e co",
      "f reed",
      "g ard",
      "j aw",
      "k it",
      "m id",
      "m aint",
      "n um",
      "o ly",
      "s lo",
      "u su",
      "v il",
      "in cre",
      "re ach",
      "re called",
      "en ess",
      "ar ies",
      "al th",
      "st rode",
      "ic ed",
      "im m",
      "ul ation",
      "ch all",
      "red u",
      "ther n",
      "ll ing",
      "sh ud",
      "sh owed",
      "con sequ",
      "ho t",
      "up tly",
      "qu e",
      "pro cess",
      "some where",
      "und us",
      "like ly",
      "cl oud",
      "still ness",
      "dr ag",
      "wind ows",
      "bas e",
      "lim its",
      "expl ained",
      "chee k",
      "smuggl er",
      "pil grim",
      "Truth say",
      "omet imes",
      "Sec undus",
      "Tue k",
      "E mp",
      "Q izar",
      "S te",
      "c rou",
      "c ult",
      "m ies",
      "s can",
      "u es",
      "in no",
      "in ward",
      "es c",
      "or g",
      "al y",
      "it ary",
      "st al",
      "st ars",
      "be at",
      "me ans",
      "de velo",
      "ter ror",
      "ap p",
      "ig no",
      "fa ir",
      "ud ed",
      "fore ver",
      "sho t",
      "moment s",
      "beli ef",
      "fac tory",
      "land sc",
      "shield s",
      "sens ation",
      "mak ing",
      "swe et",
      "possib ility",
      "wound ed",
      "discus s",
      "origin al",
      "trad ition",
      "non sense",
      "partic ular",
      "Maj esty",
      "Truthsay er",
      "A f",
      "C ha",
      "P o",
      "S and",
      "c ation",
      "d ing",
      "e at",
      "g le",
      "h i",
      "h um",
      "h arm",
      "o x",
      "r ap",
      "u ne",
      "v ir",
      "at ure",
      "at tempt",
      "st up",
      "be loved",
      "ut es",
      "de li",
      "su me",
      "fr own",
      "tr ack",
      "are a",
      "are na",
      "ard s",
      "con vers",
      "te eth",
      "ho st",
      "bl ow",
      "ene mies",
      "pres sure",
      "act iv",
      "pre cious",
      "ach ie",
      "tw isted",
      "mem ber",
      "em p",
      "cont ained",
      "need s",
      "cur ren",
      "sound ed",
      "Be fore",
      "gi ant",
      "leg ions",
      "certain ly",
      "cor rect",
      "dire ction",
      "log y",
      "gest ured",
      "cu b",
      "immedi ately",
      "tens ion",
      "shif ted",
      "chall en",
      "landsc ape",
      "A R",
      "R o",
      "W or",
      "d ut",
      "g hed",
      "l at",
      "p ace",
      "r ic",
      "s is",
      "s ac",
      "in a",
      "in tr",
      "an gl",
      "an cing",
      "ar r",
      "sa ges",
      "li es",
      "wh om",
      "had n",
      "ir ty",
      "all ow",
      "un known",
      "con spir",
      "po st",
      "pro je",
      "end ing",
      "orn ith",
      "cho sen",
      "par ad",
      "cent er",
      "whis per",
      "ref used",
      "nat ive",
      "Prin ce",
      "eas y",
      "plo t",
      "warn ing",
      "appro ach",
      "expe cted",
      "mist ake",
      "aren t",
      "stru ck",
      "stir red",
      "interest ing",
      "offe e",
      "las gun",
      "Emp ire",
      "C ome",
      "F ace",
      "a it",
      "a we",
      "b id",
      "c offee",
      "f an",
      "g ent",
      "m ess",
      "n am",
      "r ation",
      "u f",
      "in c",
      "ad ded",
      "be lt",
      "ac ter",
      "li ed",
      "no on",
      "we ar",
      "we ight",
      "ill um",
      "sh ing",
      "con st",
      "op ters",
      "ak ing",
      "ex isted",
      "if ied",
      "pro te",
      "would n",
      "gl it",
      "ci pl",
      "bo x",
      "hy s",
      "door s",
      "ef fort",
      "cur ious",
      "bro ken",
      "hel ped",
      "ev idence",
      "bu ilt",
      "fall en",
      "creat ures",
      "capt ive",
      "resp ond",
      "squ are",
      "sou l",
      "necess ity",
      "char acter",
      "emer ged",
      "straight ened",
      "bird s",
      "surv ive",
      "absol ute",
      "bank er",
      "org an",
      "D r",
      "D an",
      "G ood",
      "I N",
      "a id",
      "e ars",
      "f ed",
      "f ate",
      "f ish",
      "g ather",
      "h ig",
      "m ic",
      "o ts",
      "y ad",
      "he aring",
      "in cl",
      "th read",
      "be l",
      "be ast",
      "le vel",
      "ch in",
      "ch an",
      "we red",
      "ne phe",
      "ce rem",
      "us es",
      "fl ed",
      "ene tr",
      "pres er",
      "ci vil",
      "cl am",
      "still suits",
      "sc ene",
      "wa ved",
      "gre y",
      "kill ing",
      "deep ly",
      "power ful",
      "bar rier",
      "Be w",
      "gen cy",
      "gi ves",
      "abr upt",
      "Some one",
      "wr it",
      "bu y",
      "rid ge",
      "doub ts",
      "inte l",
      "sou ght",
      "conce al",
      "acc ident",
      "quick ly",
      "mur m",
      "immedi ate",
      "commun ic",
      "Say yad",
      "suspens or",
      "loyal ty",
      "rele ased",
      "glowglo bes",
      "aband oned",
      "bus iness",
      "Pe ople",
      "hook s",
      "esc ort",
      "hys ical",
      "nephe w",
      "Sayyad ina",
      "L ook",
      "c ou",
      "e to",
      "e motions",
      "f ash",
      "h us",
      "l ation",
      "m our",
      "w ed",
      "on se",
      "al though",
      "ad ing",
      "se a",
      "se ver",
      "ly ing",
      "Pa th",
      "sp y",
      "ab ilities",
      "It s",
      "ex c",
      "pro v",
      "el ess",
      "spe cted",
      "co ll",
      "tw ist",
      "light s",
      "ye ar",
      "cre ated",
      "gre et",
      "uni form",
      "coun tered",
      "iv id",
      "ans wered",
      "ca ut",
      "control s",
      "serv ant",
      "resp onse",
      "draw n",
      "obvious ly",
      "col or",
      "safe ty",
      "burn ing",
      "sear ch",
      "lau gh",
      "vic tory",
      "mach ine",
      "beaut iful",
      "stre et",
      "transp ort",
      "bri ef",
      "crou ched",
      "stup id",
      "fash ion",
      "F irst",
      "a ide",
      "b ru",
      "e e",
      "e cho",
      "k ne",
      "p hysical",
      "v ol",
      "re action",
      "th ick",
      "is to",
      "se m",
      "se al",
      "se aled",
      "ic ted",
      "we t",
      "we alth",
      "ne l",
      "ha h",
      "un ity",
      "per il",
      "con centr",
      "wor n",
      "res sed",
      "if tly",
      "gr as",
      "ers man",
      "des ire",
      "sto ries",
      "tre acher",
      "plan s",
      "ple ase",
      "bre athing",
      "sil ver",
      "thr own",
      "set tled",
      "bar ked",
      "certain ty",
      "Mo hi",
      "oc cur",
      "wis dom",
      "sli p",
      "jo y",
      "grow led",
      "val ue",
      "destroy ed",
      "cir cle",
      "jud gment",
      "fold ed",
      "anim als",
      "weak ness",
      "lau ghed",
      "mil itary",
      "breed ing",
      "Shad dam",
      "fabr ic",
      "consequ ences",
      "pilgrim s",
      "Af ter",
      "Mohi am",
      "I nd",
      "T ake",
      "a i",
      "c op",
      "g ently",
      "j ab",
      "l one",
      "p es",
      "p enetr",
      "s ir",
      "s ong",
      "t ies",
      "t ip",
      "the d",
      "re cord",
      "is es",
      "ar ri",
      "se ct",
      "se ated",
      "de lay",
      "she l",
      "she ath",
      "un conscious",
      "sh ips",
      "tr ave",
      "po ised",
      "res er",
      "ho ly",
      "ak es",
      "ide a",
      "gr ab",
      "des per",
      "fl ag",
      "ens ity",
      "pr in",
      "pre fer",
      "real ization",
      "less on",
      "che st",
      "cept ion",
      "av ail",
      "far ther",
      "tell ing",
      "stud y",
      "tri bes",
      "nat ure",
      "requ ires",
      "pac es",
      "state ment",
      "det ail",
      "concer n",
      "inde ed",
      "convers ation",
      "sever al",
      "A br",
      "D am",
      "E N",
      "H all",
      "S il",
      "c ous",
      "d angers",
      "e ed",
      "l ack",
      "m ad",
      "m ount",
      "p ity",
      "r ain",
      "r up",
      "v or",
      "w ife",
      "in h",
      "to w",
      "st ance",
      "ad is",
      "se c",
      "be ard",
      "ch ief",
      "wh ate",
      "ha ven",
      "ter min",
      "ab ly",
      "ap art",
      "res to",
      "gl ist",
      "gl ared",
      "sto ry",
      "back ward",
      "sand worm",
      "Sh all",
      "rel ation",
      "lin ed",
      "test ing",
      "mak es",
      "pat ch",
      "hur ry",
      "chang es",
      "trust ed",
      "present ed",
      "sup posed",
      "char ge",
      "cas ual",
      "run ning",
      "myst er",
      "clim bed",
      "summon ed",
      "gard en",
      "whate ver",
      "J ust",
      "Q u",
      "b its",
      "e ither",
      "m aj",
      "r al",
      "s man",
      "s ides",
      "u ct",
      "v ill",
      "re li",
      "st er",
      "om ed",
      "ent ial",
      "ut en",
      "ne g",
      "lo ck",
      "pl ants",
      "ind ivid",
      "con cub",
      "op port",
      "au di",
      "fl owed",
      "go es",
      "sw ung",
      "set ting",
      "want s",
      "question ing",
      "sens ing",
      "pass ing",
      "chang ing",
      "remember ing",
      "produ ce",
      "carry ing",
      "Every thing",
      "precise ly",
      "super st",
      "lie uten",
      "A T",
      "G et",
      "I V",
      "L aw",
      "O ther",
      "P adis",
      "b owed",
      "c ried",
      "e ight",
      "g ap",
      "i ved",
      "j er",
      "k il",
      "p ill",
      "p ie",
      "r ings",
      "r aged",
      "s ank",
      "s igh",
      "in side",
      "th re",
      "at om",
      "is an",
      "is ing",
      "to ol",
      "st rug",
      "id s",
      "ac ed",
      "no str",
      "we ather",
      "fr on",
      "un less",
      "sh ut",
      "te en",
      "do ctor",
      "ex act",
      "ure ly",
      "gl imp",
      "old er",
      "ud ing",
      "cl ass",
      "ps y",
      "how ever",
      "br own",
      "int ent",
      "sur vi",
      "den ied",
      "cap able",
      "every where",
      "bar gain",
      "cor rid",
      "ref lect",
      "contro lled",
      "dire cted",
      "ret reat",
      "fall ing",
      "hid ing",
      "list ening",
      "char ged",
      "cu sh",
      "inv ol",
      "meas ure",
      "scre en",
      "Naib s",
      "gas ped",
      "pos ite",
      "delic ate",
      "murm ured",
      "eto logist",
      "caut ious",
      "treacher y",
      "Abr uptly",
      "Sil ence",
      "individ ual",
      "Padis hah",
      "nostr ils",
      "A ss",
      "B ible",
      "F ear",
      "L isan",
      "M ay",
      "d ared",
      "n one",
      "r ide",
      "s an",
      "t ended",
      "z ed",
      "re spect",
      "ing ing",
      "ar th",
      "or y",
      "id ge",
      "se as",
      "ne t",
      "ke t",
      "de al",
      "ri p",
      "ha bit",
      "un cle",
      "ab sor",
      "et ic",
      "com pl",
      "op posite",
      "te ch",
      "ig ue",
      "gr in",
      "fl ick",
      "head s",
      "head ed",
      "dis c",
      "light ed",
      "sc he",
      "sw iftly",
      "too th",
      "atter ing",
      "ical ly",
      "play ing",
      "mus cle",
      "log ic",
      "reve lation",
      "hun g",
      "lar ger",
      "mat ters",
      "necess ities",
      "cir cum",
      "inv est",
      "proble ms",
      "distur b",
      "slight ly",
      "thum per",
      "adjust ed",
      "attend ants",
      "Des ert",
      "zz led",
      "symb ol",
      "Dan cer",
      "cerem ony",
      "jab bar",
      "Dam n",
      "audi ence",
      "A d",
      "G ive",
      "G aib",
      "H ulud",
      "M e",
      "M en",
      "O N",
      "b ul",
      "d y",
      "g om",
      "g all",
      "n ic",
      "n ine",
      "p un",
      "p icked",
      "r im",
      "r ank",
      "r adi",
      "t ur",
      "w in",
      "is sion",
      "ar ily",
      "or ity",
      "st umbled",
      "se curity",
      "il ar",
      "sa ved",
      "ch ose",
      "de te",
      "out ward",
      "un ted",
      "one y",
      "od or",
      "po tent",
      "ig o",
      "han ging",
      "gr ass",
      "ive ly",
      "des p",
      "ang ed",
      "co ol",
      "att itude",
      "ima ge",
      "rul es",
      "cont ain",
      "cont act",
      "den y",
      "ser ved",
      "wa ist",
      "wind s",
      "need le",
      "planet ary",
      "speak s",
      "ra ther",
      "gen etic",
      "iv a",
      "mis sed",
      "tem ple",
      "care ful",
      "oc cas",
      "capt ain",
      "gri pped",
      "tran sl",
      "bring ing",
      "pattern s",
      "appro ached",
      "clear ly",
      "cru el",
      "len gth",
      "exist ence",
      "refle cted",
      "belie ved",
      "trou ble",
      "tig ers",
      "rhyth m",
      "emp has",
      "challen ge",
      "B an",
      "B ash",
      "C h",
      "D e",
      "D hur",
      "T em",
      "b in",
      "b on",
      "d ou",
      "d ar",
      "f is",
      "f light",
      "f aster",
      "g ro",
      "g am",
      "g old",
      "l ump",
      "m ort",
      "o ted",
      "r and",
      "w hel",
      "re ce",
      "re ven",
      "th ird",
      "ar ia",
      "as c",
      "as y",
      "al ter",
      "his sed",
      "ul a",
      "ent er",
      "ro of",
      "ut ter",
      "ch uck",
      "de eper",
      "lo ss",
      "lo cked",
      "su spected",
      "sp ies",
      "pl aza",
      "see m",
      "gr am",
      "pro bing",
      "over head",
      "over whel",
      "gl adi",
      "des tru",
      "ci ally",
      "spe ed",
      "tre me",
      "sm en",
      "mem br",
      "low er",
      "br ings",
      "ner je",
      "mind s",
      "sil ently",
      "tor s",
      "sit ting",
      "fac ing",
      "Guild sman",
      "Is n",
      "demand s",
      "reve aling",
      "recogn ize",
      "hop ed",
      "Mo st",
      "ear li",
      "ear ly",
      "dam p",
      "comple x",
      "fig ures",
      "sof tly",
      "fool ish",
      "gener al",
      "gener ations",
      "spir it",
      "cliff s",
      "dep ths",
      "athe red",
      "fat igue",
      "compan ions",
      "pa used",
      "experien ces",
      "stru ct",
      "fil ter",
      "amp lif",
      "relax ed",
      "offic ial",
      "sne ered",
      "loud er",
      "Ste ersman",
      "conspir acy",
      "Bew t",
      "writ ten",
      "Ind eed",
      "avail able",
      "kil ome",
      "thre w",
      "Ban nerje",
      "Tem ple",
      "Bannerje e",
      "A D",
      "A gar",
      "B oth",
      "C ertain",
      "E n",
      "F am",
      "G u",
      "I x",
      "L it",
      "c ow",
      "d ying",
      "f re",
      "k a",
      "n al",
      "p ure",
      "u b",
      "u fact",
      "z en",
      "he ll",
      "in ate",
      "in sect",
      "ed u",
      "th al",
      "th ood",
      "th irty",
      "it es",
      "ad mitted",
      "be ha",
      "ld om",
      "for got",
      "with draw",
      "ce ed",
      "she athed",
      "tr apped",
      "man ufact",
      "con fron",
      "ex change",
      "ous ly",
      "pro gram",
      "ist s",
      "over come",
      "el s",
      "so le",
      "dis cover",
      "da is",
      "arm ed",
      "ner v",
      "cre ate",
      "sit u",
      "af f",
      "av ig",
      "fear ful",
      "inst inct",
      "shield ed",
      "bal con",
      "min utes",
      "reas ons",
      "feren ce",
      "reve al",
      "poison ed",
      "ash ing",
      "Mo re",
      "nor th",
      "capt ured",
      "rum ors",
      "rum bled",
      "gri p",
      "bur den",
      "sup pressed",
      "myst ery",
      "lea ves",
      "meas uring",
      "prom ise",
      "distur bed",
      "fle e",
      "por ted",
      "condition ed",
      "Pro tect",
      "appear ance",
      "beaut y",
      "trac ted",
      "prophe cy",
      "stiff ened",
      "comput ation",
      "belie ves",
      "whe ther",
      "orac le",
      "fun ction",
      "interpre t",
      "tas te",
      "soci ety",
      "scow led",
      "freed om",
      "slo pe",
      "Qizar ate",
      "igno red",
      "const ant",
      "cous in",
      "concub ine",
      "opport unity",
      "Bash ar",
      "membr ane",
      "Agar ves",
      "H as",
      "I I",
      "I m",
      "M ak",
      "M ission",
      "R E",
      "b en",
      "b or",
      "b ond",
      "c orn",
      "d le",
      "e ase",
      "f ill",
      "f ib",
      "f requ",
      "m oun",
      "r aw",
      "s way",
      "s old",
      "w i",
      "re ver",
      "re ported",
      "as king",
      "le cted",
      "his sing",
      "ul ate",
      "ul ated",
      "wh ip",
      "mo od",
      "fe ed",
      "su med",
      "sh ig",
      "sh attered",
      "com fort",
      "aw ire",
      "wor th",
      "po lit",
      "ag ent",
      "ex p",
      "ex treme",
      "our selves",
      "ib ility",
      "dis cipl",
      "cl aw",
      "still tent",
      "think s",
      "oun ce",
      "ign or",
      "sl id",
      "sl ay",
      "ob serv",
      "sha ped",
      "human kind",
      "du cal",
      "get ting",
      "sure ly",
      "demand ing",
      "dec ided",
      "fin al",
      "ev ents",
      "motion ed",
      "sum pt",
      "hur t",
      "val u",
      "lim it",
      "lim ited",
      "jud ge",
      "prom ised",
      "dim ens",
      "Un cle",
      "refle ction",
      "slight est",
      "Pri est",
      "redu ced",
      "maj or",
      "Dhur i",
      "gladi ator",
      "Protect iva",
      "Mission aria",
      "corn ers",
      "shig awire",
      "1 0",
      "C ast",
      "F ather",
      "H u",
      "J ud",
      "M ah",
      "N ever",
      "S top",
      "W ord",
      "d rum",
      "d uring",
      "d ress",
      "e ze",
      "f ine",
      "j our",
      "m ill",
      "m ound",
      "o bl",
      "p isto",
      "r on",
      "re move",
      "ed ges",
      "is ion",
      "is su",
      "es pe",
      "ar se",
      "it ch",
      "ad vis",
      "ac ted",
      "ac cur",
      "ac cus",
      "im ir",
      "no ise",
      "ro bed",
      "ess ential",
      "ch a",
      "ch ant",
      "fe int",
      "fe male",
      "He len",
      "ce iling",
      "ver ing",
      "de w",
      "de leg",
      "de feat",
      "ha ving",
      "sp ring",
      "am ount",
      "fl ashed",
      "ru bbed",
      "gu ilt",
      "co t",
      "ful ness",
      "em plo",
      "br ave",
      "real ize",
      "sw allow",
      "int ensity",
      "cre ation",
      "cre pt",
      "cr ack",
      "cour t",
      "gen es",
      "command s",
      "iv al",
      "hold s",
      "learn ing",
      "To o",
      "min ute",
      "Th ink",
      "fact s",
      "vi or",
      "Mo on",
      "sim ilar",
      "wis hes",
      "dam n",
      "dam ned",
      "glo be",
      "pal e",
      "pal ms",
      "differen ces",
      "jo ined",
      "tran sm",
      "return ing",
      "grow th",
      "foll owing",
      "pu zzled",
      "sharp ly",
      "pers ist",
      "hour s",
      "bitter ness",
      "offe red",
      "build ing",
      "ras ped",
      "surpr ise",
      "custo m",
      "desc ri",
      "pract ice",
      "fright ened",
      "preci pit",
      "Ro yal",
      "intel lig",
      "myster ious",
      "confron ted",
      "balcon y",
      "jour ney",
      "A da",
      "B ook",
      "P lan",
      "S p",
      "d ig",
      "f ted",
      "g ate",
      "h ut",
      "m ain",
      "o st",
      "r are",
      "s ack",
      "t it",
      "in et",
      "in fl",
      "re view",
      "re placed",
      "an n",
      "it ation",
      "st ances",
      "st atic",
      "ad m",
      "ad es",
      "om en",
      "ro le",
      "fe ared",
      "lo ose",
      "sp ent",
      "am s",
      "pl ast",
      "man ip",
      "man aged",
      "com b",
      "res ist",
      "est im",
      "your s",
      "ment al",
      "Frem kit",
      "pro ject",
      "gl are",
      "gl ass",
      "pre par",
      "co re",
      "ass ass",
      "sur ged",
      "even ing",
      "ish ment",
      "cur t",
      "find ing",
      "auth ority",
      "leg s",
      "tell s",
      "ev ol",
      "sy m",
      "rel ative",
      "point ing",
      "Har q",
      "world s",
      "dro p",
      "vent ured",
      "sle eve",
      "os ity",
      "moon light",
      "spread ing",
      "acc ord",
      "fit ted",
      "scre amed",
      "conf usion",
      "imag ine",
      "avo id",
      "pleas ure",
      "agree ment",
      "bow l",
      "suspic ion",
      "antic ip",
      "conv in",
      "usu ally",
      "shud dered",
      "develo p",
      "deli ber",
      "ornith opter",
      "parad ise",
      "occur red",
      "trave l",
      "invest ig",
      "occas ion",
      "dou ble",
      "Fam ily",
      "valu able",
      "espe cially",
      "A c",
      "G o",
      "G ai",
      "L i",
      "N or",
      "O R",
      "Z ia",
      "a fr",
      "a per",
      "a ving",
      "b ones",
      "c ate",
      "d well",
      "e tern",
      "f anat",
      "m ous",
      "m ix",
      "n amed",
      "p our",
      "r ust",
      "r ise",
      "s ometimes",
      "v ul",
      "in f",
      "re str",
      "er ror",
      "en counter",
      "al t",
      "ac compl",
      "im mob",
      "ul ars",
      "ess ence",
      "for cing",
      "we ird",
      "mo ves",
      "de gre",
      "de tect",
      "per fect",
      "ap t",
      "wor ried",
      "pro g",
      "But ler",
      "gu ided",
      "ens ive",
      "fa ith",
      "ine vit",
      "ign ed",
      "tal king",
      "clo sing",
      "sl am",
      "af fair",
      "part y",
      "planet s",
      "bar ren",
      "cent ur",
      "shad owed",
      "ot ic",
      "comp ul",
      "comp ass",
      "tri p",
      "fin ally",
      "sat is",
      "cry stal",
      "bu sh",
      "after noon",
      "happ ening",
      "answ ers",
      "grand father",
      "pul se",
      "love ly",
      "wal king",
      "pat ience",
      "hur ried",
      "mat ch",
      "Re member",
      "odd ly",
      "ris ing",
      "spir ation",
      "trem bled",
      "col lect",
      "threat ened",
      "ste ad",
      "burn ed",
      "contin ue",
      "exam ined",
      "suspens ors",
      "concer ned",
      "separ ated",
      "bab ly",
      "awak ened",
      "ele ment",
      "lift ing",
      "count less",
      "sad ness",
      "fro zen",
      "cult ure",
      "inno cent",
      "hig her",
      "mic ro",
      "bru shed",
      "lone ly",
      "destru ction",
      "kilome ters",
      "nerv ous",
      "pisto l",
      "transm it",
      "Gai us",
      "afr aid",
      "K now",
      "M an",
      "M aster",
      "U nd",
      "V lad",
      "a ked",
      "b ought",
      "d iet",
      "g ig",
      "g ged",
      "h orn",
      "i ers",
      "i osity",
      "k not",
      "m ud",
      "n ical",
      "p ly",
      "p ho",
      "s him",
      "u ary",
      "he aven",
      "the red",
      "in finite",
      "re cover",
      "re mote",
      "an a",
      "at tract",
      "en or",
      "as sumpt",
      "se ven",
      "se als",
      "il li",
      "be long",
      "be coming",
      "for th",
      "lo red",
      "lo sing",
      "ter m",
      "ter ms",
      "tr ace",
      "ab du",
      "am ing",
      "od ors",
      "com bat",
      "con side",
      "ap s",
      "te mper",
      "pe er",
      "ex er",
      "ex tended",
      "if y",
      "bl ess",
      "qu ality",
      "ck s",
      "pro test",
      "gl aring",
      "des er",
      "back ground",
      "so o",
      "dis quiet",
      "cl ing",
      "co in",
      "co de",
      "oun ced",
      "bo re",
      "than k",
      "br illi",
      "rul ed",
      "ner ve",
      "Gesser its",
      "bre eze",
      "wa ves",
      "ob ed",
      "sk ull",
      "wind trap",
      "sha pes",
      "spo t",
      "just ice",
      "lit er",
      "kill er",
      "sign aled",
      "feel ings",
      "bas ic",
      "coun ted",
      "mas ters",
      "mis s",
      "stor ms",
      "grand son",
      "lead ers",
      "mes sages",
      "oc ulars",
      "sol id",
      "pri est",
      "sou thern",
      "house hold",
      "tu ne",
      "stir ring",
      "possib ilities",
      "vic tim",
      "tens ions",
      "cke t",
      "adv anced",
      "ma ula",
      "dev ice",
      "glowglo be",
      "pos es",
      "fail ure",
      "occup ied",
      "fif ty",
      "aly sis",
      "tradition al",
      "hus band",
      "twist ing",
      "glist ening",
      "lieuten ant",
      "circum stances",
      "dete cted",
      "bin oculars",
      "reven ge",
      "beha vior",
      "forgot ten",
      "fib er",
      "Vlad imir",
      "conside red",
      ") ,",
      ") .",
      ", '",
      "C z",
      "C ol",
      "H oly",
      "P r",
      "S urely",
      "c it",
      "d art",
      "d ull",
      "e w",
      "e ag",
      "f ly",
      "f ief",
      "g au",
      "j ihad",
      "l ur",
      "l est",
      "m ate",
      "m oney",
      "o om",
      "o pers",
      "r s",
      "r ite",
      "re ar",
      "th od",
      "th opters",
      "en countered",
      "to ri",
      "ar led",
      "as sa",
      "st ag",
      "ad ult",
      "ad mit",
      "se mut",
      "se ldom",
      "be ll",
      "ac he",
      "ro ll",
      "me ter",
      "me chan",
      "ut tered",
      "we e",
      "ver t",
      "su pre",
      "sh own",
      "sh aring",
      "com posed",
      "rem aining",
      "po ol",
      "ag ents",
      "ak s",
      "pe ct",
      "our s",
      "ct ions",
      "bl es",
      "bl ast",
      "bl ame",
      "bl ink",
      "til e",
      "ep t",
      "wat ers",
      "wat cher",
      "sto ck",
      "so ckets",
      "fa vor",
      "pre sume",
      "cl aim",
      "light ly",
      "plan etologist",
      "tal ked",
      "dr own",
      "int ense",
      "clo th",
      "should n",
      "every one",
      "sl ain",
      "form ing",
      "bet ro",
      "look s",
      "quest ing",
      "part ly",
      "inter nal",
      "ref er",
      "Sh ould",
      "flo od",
      "min is",
      "rel uct",
      "relig ions",
      "lin ess",
      "tem pted",
      "tem por",
      "pul l",
      "swe ep",
      "posit ions",
      "squ ee",
      "bur st",
      "appro aching",
      "cir c",
      "dri ve",
      "argu ed",
      "leap ing",
      "itu des",
      "meas ured",
      "mist akes",
      "pop ulation",
      "cross ing",
      "pleas ant",
      "mult itude",
      "tun nel",
      "Wh ich",
      "eco logical",
      "maint ained",
      "achie ved",
      "dut y",
      "gent le",
      "character ist",
      "gather ing",
      "kne es",
      "inh ib",
      "jer ked",
      "pie ce",
      "situ ation",
      "Li ke",
      "Butler ian",
      "centur ies",
      "Cz igo",
      "semut a",
      "supre me",
      "I S",
      "L A",
      "L ich",
      "L ight",
      "L ist",
      "P le",
      "S ometimes",
      "U S",
      "W ay",
      "W ait",
      "a unt",
      "b all",
      "d inner",
      "e u",
      "h ill",
      "k is",
      "k ob",
      "m ater",
      "n avig",
      "o te",
      "o logy",
      "p ou",
      "p en",
      "r ag",
      "s ly",
      "s op",
      "s ize",
      "t an",
      "t ab",
      "u sel",
      "v an",
      "v ation",
      "v ine",
      "v ention",
      "w and",
      "z one",
      "re aching",
      "er ness",
      "as se",
      "st ained",
      "st ick",
      "se x",
      "se es",
      "se ll",
      "li ked",
      "li qu",
      "fe ction",
      "ir t",
      "all owing",
      "out lined",
      "ter r",
      "sp end",
      "fr ust",
      "tr ail",
      "pl es",
      "pl as",
      "are r",
      "wor ry",
      "po t",
      "res ent",
      "ag ony",
      "au d",
      "if a",
      "Le ave",
      "gr own",
      "ey ed",
      "pres sing",
      "pres ently",
      "ens es",
      "pre t",
      "dis gu",
      "cl en",
      "tw ice",
      "str ang",
      "plan ned",
      "ign ity",
      "br ows",
      "ple aded",
      "rul er",
      "car ries",
      "clo thing",
      "ite ment",
      "cre w",
      "cle ver",
      "ty ard",
      "guard ed",
      "cur ve",
      "cur iosity",
      "Mother s",
      "cour tyard",
      "lit ter",
      "part s",
      "deep est",
      "read ing",
      "bro ad",
      "fut ures",
      "iv ity",
      "rest ed",
      "Th rough",
      "blood y",
      "rid ing",
      "keep ing",
      "nor thern",
      "hun ting",
      "jo ining",
      "vent ure",
      "fic ient",
      "carry all",
      "troop s",
      "dom inated",
      "possess ion",
      "tight ly",
      "burn er",
      "prep are",
      "mark s",
      "heart beat",
      "pac ing",
      "pop ul",
      "pop ular",
      "obser ved",
      "scr am",
      "indic ated",
      "suc ceed",
      "suf fer",
      "respons ibility",
      "prim itive",
      "num ber",
      "Cha kob",
      "Po ss",
      "curren ts",
      "angl ed",
      "prote ction",
      "glit tered",
      "tow n",
      "sec ure",
      "atom ics",
      "san ct",
      "fis sure",
      "manufact ure",
      "Hu man",
      "obl iter",
      "cha os",
      "enor mous",
      "Lich na",
      "Chakob sa",
      "A m",
      "C ons",
      "C ont",
      "E S",
      "S i",
      "S tr",
      "S pe",
      "T ari",
      "c in",
      "c am",
      "d anced",
      "d ignity",
      "e ad",
      "g if",
      "g ments",
      "g athered",
      "h int",
      "l um",
      "s ort",
      "s ick",
      "v ar",
      "in it",
      "in habit",
      "re call",
      "an na",
      "at op",
      "is ms",
      "ar ch",
      "ad or",
      "ow er",
      "il es",
      "ic ation",
      "im plic",
      "ve il",
      "ent our",
      "ro lling",
      "wh ipped",
      "for give",
      "mo ck",
      "fe llow",
      "de fin",
      "lo ad",
      "su res",
      "sp ark",
      "sp illed",
      "sh ift",
      "ge red",
      "con ve",
      "te x",
      "po l",
      "po ckets",
      "ex po",
      "ex otic",
      "fo l",
      "can y",
      "qu ot",
      "ant age",
      "ment ion",
      "ous ed",
      "gu ess",
      "act ual",
      "pr ide",
      "dis eng",
      "cl ue",
      "co ve",
      "co lored",
      "tre es",
      "sm iling",
      "long ed",
      "ass ess",
      "dr aper",
      "int ended",
      "side ways",
      "tor n",
      "human ity",
      "sub stance",
      "je cted",
      "speak er",
      "tou ching",
      "par ted",
      "ten ance",
      "inst ead",
      "Be hind",
      "leg al",
      "ref use",
      "comp any",
      "ug s",
      "wr ink",
      "bu b",
      "grand children",
      "ban ner",
      "sn arled",
      "pur ple",
      "pat ro",
      "swe at",
      "eas ier",
      "capt ure",
      "near by",
      "ges ted",
      "cer ity",
      "produ ct",
      "Re lig",
      "Re gency",
      "ctor s",
      "argu ments",
      "acc um",
      "import ance",
      "Com ment",
      "seek er",
      "distur bing",
      "ier ce",
      "trans formation",
      "Al ways",
      "trick s",
      "sor ry",
      "mor al",
      "mor row",
      "stri ke",
      "transp arent",
      "ph one",
      "aband on",
      "awak ening",
      "Su k",
      "smo ke",
      "orac ular",
      "vit al",
      "blur red",
      "bare ly",
      "usu al",
      "incre as",
      "scan ned",
      "arr anged",
      "nam on",
      "clam or",
      "communic ations",
      "echo ed",
      "resto re",
      "vill age",
      "reli ef",
      "absor bed",
      "potent ial",
      "emphas is",
      "struct ure",
      "wi ped",
      "observ ation",
      "dimens ions",
      "Mah di",
      "Word s",
      "tit le",
      "prog ress",
      "gig antic",
      "obed ience",
      "Ple ase",
      "pou red",
      "usel ess",
      "Tari q",
      "entour age",
      "0 0",
      "C o",
      "C han",
      "F o",
      "I T",
      "K ral",
      "P re",
      "P al",
      "S pacing",
      "T r",
      "b att",
      "c and",
      "e re",
      "f u",
      "f ount",
      "i ver",
      "i ol",
      "i ans",
      "j et",
      "m ig",
      "m asked",
      "n u",
      "n ers",
      "o val",
      "p se",
      "p ound",
      "r out",
      "t reat",
      "t ask",
      "t ipped",
      "v age",
      "y r",
      "in ked",
      "in flu",
      "re in",
      "re gre",
      "re actions",
      "ed ged",
      "th irst",
      "en joy",
      "as sume",
      "as pect",
      "st ation",
      "ad mir",
      "se ed",
      "il os",
      "sa ving",
      "im pr",
      "me al",
      "ch ill",
      "we ighed",
      "fe ated",
      "red it",
      "de b",
      "ri ver",
      "ri ers",
      "she ll",
      "un certain",
      "pl un",
      "per mission",
      "per spiration",
      "man eu",
      "ap ping",
      "te aching",
      "te acher",
      "po cket",
      "up per",
      "pe ering",
      "ex it",
      "ex press",
      "other wise",
      "bl inked",
      "see ming",
      "Le ven",
      "ers ed",
      "pro ved",
      "pro bably",
      "ate ll",
      "will ing",
      "end less",
      "hand ed",
      "des ires",
      "vo ked",
      "must n",
      "pre gn",
      "dis trust",
      "dis trans",
      "cl ut",
      "cl aimed",
      "tre e",
      "tre ated",
      "str ous",
      "sc attered",
      "son s",
      "bo ard",
      "em bar",
      "most ly",
      "car rier",
      "bre ch",
      "bre athed",
      "ser ious",
      "sl it",
      "reac hes",
      "mon strous",
      "ins isted",
      "inter fe",
      "inter rup",
      "land s",
      "fin ished",
      "pul ling",
      "tro opers",
      "wis hed",
      "reason ing",
      "hun ters",
      "na ked",
      "accept ing",
      "At tend",
      "cat s",
      "ize c",
      "sup plic",
      "ste ady",
      "fold s",
      "myst i",
      "hesit ation",
      "prof it",
      "reg ular",
      "ator y",
      "empt iness",
      "fit ting",
      "stret ching",
      "pa per",
      "fast ened",
      "possib ly",
      "pred iction",
      "fil m",
      "sear ched",
      "sear ching",
      "condition ing",
      "legend s",
      "plant ings",
      "sug gested",
      "trac es",
      "terrif ied",
      "surv ival",
      "avo iding",
      "separ ate",
      "emotion al",
      "design ed",
      "stay ed",
      "suc cess",
      "smo oth",
      "flu id",
      "surround ed",
      "tig er",
      "Con vention",
      "Pri ests",
      "bind u",
      "frag ile",
      "rig id",
      "track s",
      "activ ity",
      "dut ies",
      "sac red",
      "civil ization",
      "exc itement",
      "grab bed",
      "desper ate",
      "exact ly",
      "corrid or",
      "disturb ance",
      "earli er",
      "Certain ly",
      "Ix ian",
      "edu cation",
      "moun ted",
      "discipl ine",
      "issu e",
      "plast ic",
      "weird ing",
      "slam med",
      "micro phone",
      "Und er",
      "betro thal",
      "pret ty",
      "sanct uary",
      "fol k",
      "Kral izec",
      "ilos op",
      "Leven brech",
      "B es",
      "B ey",
      "M in",
      "O b",
      "O ver",
      "P l",
      "P ay",
      "S car",
      "U m",
      "W at",
      "W ind",
      "W anna",
      "b ill",
      "c ough",
      "d um",
      "d ressed",
      "e ch",
      "e cut",
      "i om",
      "j ob",
      "l ab",
      "l am",
      "l ady",
      "l ured",
      "l uck",
      "m ering",
      "n in",
      "p in",
      "p ad",
      "p ick",
      "p ict",
      "r ace",
      "s es",
      "s cience",
      "s atell",
      "t ied",
      "v ari",
      "z er",
      "the e",
      "in ating",
      "on ing",
      "at ted",
      "en ger",
      "en closing",
      "to ries",
      "to morrow",
      "as m",
      "or ted",
      "al e",
      "it ious",
      "st aff",
      "ad ept",
      "se lect",
      "le ver",
      "le ather",
      "im bas",
      "gh ost",
      "ro ying",
      "ess ion",
      "me thod",
      "ut ed",
      "we aring",
      "ver ted",
      "de termin",
      "lo t",
      "out line",
      "sp ite",
      "sh atter",
      "tr ade",
      "per su",
      "per man",
      "ap o",
      "ap preci",
      "op oly",
      "ag ue",
      "ex plan",
      "ex ecut",
      "bl an",
      "bl own",
      "bl ank",
      "hat ed",
      "gr ated",
      "pro of",
      "gar ments",
      "ru b",
      "sand s",
      "pr ana",
      "spe ech",
      "dis sol",
      "any way",
      "str ing",
      "str anger",
      "sc ri",
      "br ut",
      "ass ador",
      "arm or",
      "rul ing",
      "real izing",
      "ni ves",
      "sw ift",
      "car ved",
      "sha ke",
      "sha ken",
      "tor t",
      "dark ened",
      "sign ific",
      "mon opoly",
      "thr ow",
      "thr owing",
      "ult ane",
      "dist inct",
      "bas es",
      "ra id",
      "hood ed",
      "igh lin",
      "rest less",
      "sun set",
      "tak es",
      "For give",
      "nat ives",
      "peri od",
      "wo od",
      "ban ked",
      "cal cul",
      "war ren",
      "sim ultane",
      "requ ire",
      "glo om",
      "jo in",
      "cham bers",
      "ances try",
      "ances tors",
      "sup press",
      "dri ven",
      "foot steps",
      "heav ily",
      "instru ments",
      "pa id",
      "ali en",
      "strong er",
      "emer ge",
      "chair s",
      "Un less",
      "pil ot",
      "Tru e",
      "prophe t",
      "thousand s",
      "calm ness",
      "centr al",
      "depend ent",
      "wel come",
      "desc end",
      "spec tr",
      "suggest ion",
      "fif teen",
      "mid dle",
      "frown ed",
      "lasgun s",
      "nam es",
      "illum inated",
      "glit tering",
      "thread s",
      "mour ning",
      "gras p",
      "relation ship",
      "relation ships",
      "strug gle",
      "cush ions",
      "Ass an",
      "De ath",
      "dar ted",
      "Mak er",
      "limit ations",
      "Jud ge",
      "curt ain",
      "accord ing",
      "pour ing",
      "Know ing",
      "clen ched",
      "cin namon",
      "draper ies",
      "Chan ge",
      "Pal imbas",
      "regre t",
      "mysti que",
      "Bey ond",
      "Scar face",
      "Palimbas ha",
      "A S",
      "A mb",
      "B u",
      "D is",
      "M em",
      "P ower",
      "S chool",
      "T an",
      "T er",
      "T han",
      "b acked",
      "c ers",
      "c ence",
      "c ase",
      "d ial",
      "f aded",
      "f ierce",
      "h it",
      "k wisatz",
      "m n",
      "o il",
      "p on",
      "p ion",
      "r ab",
      "s no",
      "s ip",
      "t ug",
      "z y",
      "he st",
      "re ward"
    ]
  }
}